<unk>	0
<s>	0
</s>	0
▁	-3.23447
.	-3.44613
..	-4.36108
이	-4.423
▁영화	-4.56215
...	-4.60647
의	-4.68045
가	-4.69688
도	-4.75942
는	-4.84226
,	-4.88905
을	-4.98858
에	-5.06745
고	-5.17838
다	-5.20427
은	-5.21861
지	-5.27113
?	-5.28904
한	-5.47918
를	-5.50662
▁너무	-5.51394
만	-5.55097
!	-5.577
▁정말	-5.64629
▁이	-5.66969
로	-5.7001
나	-5.7949
게	-5.84253
▁진짜	-5.86051
~	-5.90351
영화	-5.92745
과	-5.97378
기	-6.09762
라	-6.12967
으로	-6.13921
하고	-6.15916
인	-6.17381
점	-6.20652
리	-6.20964
서	-6.21108
어	-6.21258
에서	-6.23729
▁그	-6.25833
▁잘	-6.27177
▁안	-6.28791
아	-6.2981
네	-6.30448
와	-6.3182
▁왜	-6.35761
들	-6.35907
▁다	-6.39277
▁수	-6.3935
▁1	-6.39683
▁더	-6.39832
!!	-6.40498
▁이런	-6.41452
....	-6.42082
하는	-6.44674
요	-6.45524
▁아	-6.48044
해	-6.48344
거	-6.51907
▁그냥	-6.53681
자	-6.59142
네요	-6.61031
▁드라마	-6.61183
면	-6.62506
수	-6.65336
▁본	-6.66014
대	-6.66067
▁보고	-6.67855
▁10	-6.68675
스	-6.70638
시	-6.71439
음	-6.71663
지만	-6.72131
▁연기	-6.72271
니	-6.74441
▁평점	-6.75053
야	-6.76227
▁영화를	-6.78512
▁한	-6.78753
▁좀	-6.80212
함	-6.80559
▁내	-6.81225
일	-6.81273
하게	-6.85022
사	-6.86543
이다	-6.8859
▁참	-6.91003
진	-6.91299
▁봤는데	-6.92118
▁없는	-6.93584
데	-6.93901
▁쓰레기	-6.95028
▁스토리	-6.95195
▁ᄏᄏ	-6.9542
보다	-6.95564
하	-6.96308
▁이거	-6.96803
하다	-6.9696
▁못	-6.97934
▁영화는	-6.97964
▁영화가	-6.9816
할	-6.9835
까지	-6.98827
미	-6.98954
임	-6.99145
▁내가	-6.99245
주	-6.99582
▁최고의	-6.99785
여	-7.00347
정	-7.00422
▁완전	-7.0047
우	-7.00702
▁이건	-7.00923
▁없다	-7.0134
▁2	-7.01917
안	-7.02192
▁있는	-7.03315
구	-7.03632
들이	-7.03734
▁개	-7.04728
듯	-7.06194
▁좋은	-7.0656
ᄏᄏ	-7.0685
해서	-7.07534
는데	-7.076
▁최고	-7.07721
!!!	-7.09797
성	-7.10561
▁이렇게	-7.11376
▁보는	-7.11595
냐	-7.11932
던	-7.12261
▁다시	-7.12405
건	-7.12923
▁것	-7.13
▁이게	-7.13723
보	-7.14516
장	-7.14867
▁3	-7.14939
▁나	-7.15153
^^	-7.1526
신	-7.15508
드	-7.15608
적	-7.16416
▁난	-7.18075
중	-7.18412
랑	-7.18471
상	-7.18548
▁말	-7.20656
치	-7.20868
ᄏ	-7.21547
▁보	-7.21647
전	-7.21695
보고	-7.23606
▁많이	-7.26219
▁평점이	-7.2644
▁뭐	-7.27894
마	-7.28578
~~	-7.28789
▁넘	-7.30074
인데	-7.3062
개	-7.30957
1	-7.30986
오	-7.32088
▁역시	-7.32488
▁작품	-7.32512
원	-7.32711
▁지	-7.32907
년	-7.33196
▁그리고	-7.33752
부	-7.33827
세	-7.35121
분	-7.35178
질	-7.35688
▁재밌게	-7.36951
비	-7.37249
▁생각	-7.37923
▁볼	-7.38013
▁저	-7.3825
▁전	-7.38252
▁또	-7.39523
;;	-7.39679
▁마지막	-7.39854
그	-7.40483
트	-7.4052
▁오	-7.41206
2	-7.41334
??	-7.41524
했다	-7.41563
것	-7.41792
려	-7.41964
▁하는	-7.42556
'	-7.43429
▁재미	-7.43783
화	-7.44193
내	-7.44735
▁별로	-7.44761
히	-7.45238
진짜	-7.45755
말	-7.45995
같은	-7.46251
▁감동	-7.46562
습니다	-7.4686
하지	-7.47335
▁꼭	-7.474
라고	-7.47794
적인	-7.47847
소	-7.48071
때	-7.48266
▁하	-7.48627
급	-7.48934
▁없고	-7.49944
▁가장	-7.5029
물	-7.50467
입니다	-7.50493
▁주	-7.51958
▁ᄏᄏᄏ	-7.52377
▁하나	-7.52463
▁무슨	-7.52492
용	-7.5294
▁감독	-7.53925
▁무	-7.54619
)	-7.54848
라는	-7.55041
▁시간	-7.5509
유	-7.55103
▁아깝다	-7.5551
▁이야기	-7.55536
▁기대	-7.55603
▁액션	-7.56303
란	-7.56321
있는	-7.56395
더	-7.56615
▁보면	-7.57268
제	-7.57335
러	-7.58268
▁별	-7.58389
ᅲᅲ	-7.58397
좀	-7.58975
된	-7.59315
▁다른	-7.60051
선	-7.60475
▁지금	-7.60689
이나	-7.61046
너무	-7.61305
▁만든	-7.61474
씨	-7.6303
ᄏᄏᄏ	-7.6306
어요	-7.63173
▁아니	-7.63474
▁사	-7.63699
▁한국	-7.64823
▁할	-7.6498
걸	-7.65011
조	-7.65455
드라마	-7.66182
줄	-7.66393
무	-7.66581
▁중	-7.66973
편	-7.67651
감	-7.67937
부터	-7.6814
;	-7.6821
▁사랑	-7.68353
긴	-7.68877
없는	-7.691
▁유	-7.69199
처럼	-7.69271
군	-7.69387
▁김	-7.69697
▁내용	-7.69934
▁조	-7.70545
모	-7.70656
영	-7.70977
정말	-7.71194
▁미	-7.71211
▁비	-7.71595
3	-7.71679
▁대	-7.71743
▁말이	-7.71956
에게	-7.7276
▁ᅲᅲ	-7.72794
▁ᄏ	-7.72979
▁처음	-7.73179
심	-7.73481
당	-7.73503
동	-7.73515
ᅲ	-7.73527
식	-7.73764
▁명작	-7.73772
본	-7.7386
연	-7.74409
▁같은	-7.74531
▁영화다	-7.75577
▁연출	-7.75588
▁정	-7.7562
바	-7.75848
▁끝까지	-7.7621
명	-7.76485
▁'	-7.76529
▁배우	-7.7692
으면	-7.76927
▁두	-7.76935
▁느낌	-7.77186
▁돈	-7.78243
호	-7.79304
남	-7.79854
▁일본	-7.7994
▁때	-7.80337
난	-7.80501
▁와	-7.80533
(	-7.80892
위	-7.81014
타	-7.81146
살	-7.81199
한다	-7.81348
들의	-7.81411
▁ᅳᅳ	-7.81504
▁솔직히	-7.81507
울	-7.81664
며	-7.81779
▁전혀	-7.81808
디	-7.82515
되는	-7.82856
인지	-7.83094
▁기	-7.83146
운	-7.83255
작	-7.83382
▁하지만	-7.83443
죠	-7.83666
단	-7.83959
▁뭔가	-7.84093
면서	-7.84581
▁거	-7.84616
▁같다	-7.84873
워	-7.84906
▁대한	-7.85061
희	-7.85256
▁일	-7.85472
▁봤다	-7.85696
▁있다	-7.8577
▁아주	-7.86664
▁제	-7.86668
두	-7.87344
▁해	-7.87402
▁짱	-7.8757
합니다	-7.87689
크	-7.87935
▁좋다	-7.88021
발	-7.88452
ᅳᅳ	-7.88534
길	-7.88654
노	-7.89108
래	-7.89762
이랑	-7.90341
▁봐도	-7.9045
▁사람	-7.91157
준	-7.91566
▁많은	-7.91583
린	-7.91629
▁마	-7.91732
때문에	-7.91917
재	-7.92
잘	-7.92119
르	-7.92382
▁알	-7.92603
루	-7.92748
▁신	-7.92815
하면	-7.93172
류	-7.93324
▁구	-7.93598
하지만	-7.93674
▁어	-7.9375
▁모두	-7.94154
▁ᄒᄒ	-7.94243
이라	-7.94406
▁재밌다	-7.945
인가	-7.94902
레	-7.95107
▁여자	-7.95512
판	-7.95575
생	-7.95771
▁어떻게	-7.95995
▁좋아	-7.96012
▁자	-7.9602
▁재미있게	-7.96103
▁내내	-7.96701
▁계속	-7.97055
▁이걸	-7.97056
▁나오는	-7.97254
,,	-7.97267
프	-7.97285
▁그런	-7.97539
▁후	-7.97996
▁소	-7.9801
▁코미디	-7.98334
▁않고	-7.98373
▁내용이	-7.98426
없이	-7.98585
▁줄	-7.98589
하나	-7.98631
▁최악	-7.98891
저	-7.99122
-	-7.99124
박	-7.99321
연기	-7.99449
▁이영화	-7.99506
경	-7.99524
▁보기	-7.99828
간	-7.99882
▁대박	-8.00057
▁배우들	-8.00138
▁아니라	-8.00186
지는	-8.0081
민	-8.01378
엔	-8.01614
▁아닌	-8.01954
한테	-8.02124
▁최악의	-8.02277
들은	-8.02434
날	-8.02929
했던	-8.03341
▁모든	-8.03532
었다	-8.03548
▁반	-8.03618
▁4	-8.039
▁그래도	-8.04293
▁한번	-8.04532
번	-8.04846
▁주인공	-8.04954
후	-8.05048
▁시	-8.05361
▁애	-8.05775
▁이상	-8.05938
구나	-8.06043
파	-8.06233
이라는	-8.07093
방	-8.07216
▁딱	-8.0777
▁하고	-8.07992
▁아니다	-8.08099
터	-8.08327
애	-8.08346
되	-8.08624
시간	-8.091
▁남자	-8.09218
▁실망	-8.09354
생각	-8.09506
▁남	-8.09825
봤는데	-8.09849
▁연기가	-8.09886
▁7	-8.09924
못	-8.10393
▁듯	-8.10488
지도	-8.10512
든	-8.10551
▁이해	-8.10712
▁요즘	-8.10787
▁아름다운	-8.10826
o	-8.11004
▁5	-8.11018
▁우리	-8.11172
▁제일	-8.11298
▁만드는	-8.11383
하네	-8.11707
▁모	-8.11909
▁부	-8.12245
점도	-8.12382
형	-8.12529
▁근데	-8.12617
10	-8.12754
▁않은	-8.12808
까	-8.12926
▁공포	-8.12941
▁전개	-8.13037
▁애니	-8.1323
▁굿	-8.13238
▁이제	-8.13255
겨	-8.13467
반	-8.13554
▁되	-8.14091
▁감독이	-8.14326
▁스릴러	-8.14878
▁인생	-8.14952
▁않는	-8.15195
국	-8.15296
티	-8.15361
▁연기도	-8.15414
▁음악	-8.15782
▁수준	-8.15934
▁제대로	-8.15969
▁기억	-8.16046
▁욕	-8.16128
▁바	-8.16344
▁8	-8.16378
ᄒᄒ	-8.16454
님	-8.16636
▁절대	-8.17049
이란	-8.17051
▁보다가	-8.17116
하네요	-8.17343
▁장면	-8.17474
림	-8.17502
▁개봉	-8.17649
▁스토리가	-8.17885
▁내용도	-8.18002
겠다	-8.18057
피	-8.18359
이고	-8.1877
산	-8.18802
▁건	-8.18819
보면	-8.19233
차	-8.19258
▁재미없다	-8.19458
회	-8.19679
▁나는	-8.197
니까	-8.19701
없다	-8.19826
▁아니고	-8.1985
보는	-8.20128
현	-8.20713
토	-8.20966
하기	-8.21
적으로	-8.21106
▁막장	-8.21116
▁장	-8.21373
♥	-8.21376
배	-8.21382
즈	-8.21609
망	-8.21631
다니	-8.21769
태	-8.21791
▁보다	-8.21826
▁반전	-8.21863
공	-8.21947
!!!!	-8.21961
▁9	-8.22006
점이	-8.22072
▁OO	-8.22095
들을	-8.22239
ᄒ	-8.22503
▁0	-8.22606
관	-8.22629
▁싶다	-8.22916
버	-8.23044
~~~	-8.23166
▁끝	-8.23651
카	-8.23974
▁추천	-8.24027
▁속	-8.24037
4	-8.24399
▁만들어	-8.24455
▁박	-8.24575
다가	-8.2476
▁우	-8.24774
▁영화라고	-8.25185
5	-8.2519
▁때문에	-8.25544
년대	-8.25646
▁시간이	-8.25805
▁강	-8.25854
왜	-8.26227
▁아직도	-8.26253
▁재밌	-8.2666
따	-8.26772
▁여운이	-8.27015
▁영화의	-8.27072
▁정도	-8.2733
양	-8.27517
건지	-8.27626
▁아까운	-8.27627
▁주는	-8.27745
▁걸	-8.27928
▁차라리	-8.27967
짱	-8.2823
극	-8.28243
속	-8.28256
키	-8.28419
것도	-8.28506
▁재미도	-8.28565
▁나름	-8.2861
▁사람들	-8.28709
""	-8.28887
▁파	-8.29078
▁망	-8.29124
어서	-8.29201
종	-8.29261
▁심	-8.2934
했는데	-8.29685
/	-8.29737
으	-8.29785
▁나온	-8.29919
▁피	-8.29959
▁엄청	-8.30042
라도	-8.3012
▁특히	-8.30175
▁좋았다	-8.30324
▁세	-8.30436
▁걍	-8.30453
▁표현	-8.3046
▁남는	-8.30555
ᅳ	-8.30589
▁영화입니다	-8.30679
달	-8.30712
▁되는	-8.30774
이라고	-8.3081
▁도대체	-8.3087
▁눈	-8.30882
▁나도	-8.30911
▁보면서	-8.31146
죽	-8.31148
▁미국	-8.312
뿐	-8.31218
▁몇	-8.31281
▁조금	-8.31317
▁진심	-8.31637
력	-8.31743
▁스토리도	-8.32582
금	-8.32602
▁우리나라	-8.32667
▁대사	-8.33134
▁감독의	-8.33673
▁오랜만에	-8.33718
▁스	-8.33892
문	-8.34273
참	-8.34305
▁눈물	-8.34375
▁캐릭터	-8.34432
▁불	-8.34475
정도	-8.34604
석	-8.34691
인듯	-8.34838
평점	-8.35028
▁마지막에	-8.35149
▁멋진	-8.35341
▁공포영화	-8.35524
▁원	-8.35651
▁뻔한	-8.3566
▁이해가	-8.35713
점은	-8.35733
ᅮᅮ	-8.35764
포	-8.36479
▁결말	-8.36661
해요	-8.3683
▁배	-8.37412
???	-8.37686
▁시리즈	-8.37845
▁없음	-8.37987
스토리	-8.38057
▁B	-8.38166
▁좋아하는	-8.38221
▁좋고	-8.3824
▁진	-8.38342
▁봤던	-8.38359
해도	-8.384
▁동	-8.38474
밖에	-8.38491
는게	-8.38599
▁봤습니다	-8.38897
▁없	-8.38977
▁노	-8.39026
▁재밌어요	-8.39153
▁시작	-8.39192
매	-8.39228
▁생각이	-8.39258
▁영	-8.3938
집	-8.39487
▁ᄏᄏᄏᄏ	-8.39567
▁쓰	-8.39699
;;;	-8.3983
져	-8.39847
ᄏᄏᄏᄏ	-8.39927
▁울	-8.39959
이런	-8.40016
볼	-8.4002
▁막	-8.40341
▁20	-8.4045
▁수작	-8.4052
사람	-8.40536
는거	-8.40586
배우	-8.40824
▁공감	-8.40982
더라	-8.40986
▁연	-8.4103
장면	-8.41245
▁지루하고	-8.41297
▁지루한	-8.41376
넘	-8.41588
▁영화에	-8.41932
릴	-8.41947
▁싶은	-8.42071
▁재미가	-8.42084
만큼	-8.421
실	-8.42117
▁가슴	-8.42118
움	-8.4234
쳐	-8.42386
던데	-8.42607
체	-8.42791
려고	-8.4291
7	-8.42938
▁공	-8.42997
▁초	-8.43
▁원작	-8.43172
▁오늘	-8.43306
그냥	-8.43437
▁재밌는	-8.43506
▁어떤	-8.43513
▁함께	-8.43693
▁뭘	-8.43828
▁ᅲ	-8.43973
▁뭔	-8.4404
계	-8.4411
▁그저	-8.4436
코	-8.44408
▁지루함	-8.44601
▁OOO	-8.44643
▁될	-8.44733
▁기분	-8.44799
있다	-8.4504
역	-8.45058
▁사람이	-8.45139
▁배우들의	-8.45198
하며	-8.45371
d	-8.45467
등	-8.45874
▁없이	-8.45952
▁큰	-8.46103
▁개인적으로	-8.46103
중에	-8.46128
었는데	-8.46202
▁날	-8.46777
탄	-8.46838
▁보는내내	-8.46926
▁된	-8.46974
갈	-8.46993
▁노래	-8.47069
▁알바	-8.47209
▁졸작	-8.47225
▁괜찮은	-8.47302
▁나오	-8.47416
▁영상	-8.47477
▁애니메이션	-8.47512
▁못한	-8.47519
▁얼마나	-8.47793
▁억지	-8.48044
승	-8.48059
▁재	-8.48297
▁^^	-8.48335
▁않	-8.48635
▁안되는	-8.48656
▁보세요	-8.48717
▁여	-8.48737
▁연기력	-8.49002
불	-8.49003
▁몰입도	-8.49171
였다	-8.49326
는지	-8.49365
▁아무리	-8.4957
▁캐스팅	-8.49687
잼	-8.49749
▁영화로	-8.49775
돈	-8.49797
▁최고다	-8.49808
▁성	-8.50075
없	-8.5016
▁소재	-8.50189
▁허	-8.50273
~!	-8.50339
▁인간	-8.50477
8	-8.50788
▁필요	-8.50996
병	-8.51087
,,,	-8.51139
최고	-8.51235
t	-8.51322
격	-8.51662
구만	-8.5173
사랑	-8.51784
▁후회	-8.5183
▁만들	-8.52048
▁기억에	-8.52056
▁매	-8.52068
▁긴장감	-8.52214
▁"	-8.52452
직	-8.52473
감동	-8.52792
▁제목	-8.5282
▁시나리오	-8.52863
알	-8.52942
▁발	-8.5295
감독	-8.5323
하면서	-8.53376
▁머	-8.53757
있	-8.54042
김	-8.54086
▁결국	-8.54236
꺼	-8.54263
악	-8.54539
▁매우	-8.54724
▁현실	-8.54738
예	-8.55116
강	-8.55152
s	-8.55237
했음	-8.55332
▁제발	-8.55387
▁만화	-8.55434
▁선	-8.55513
스트	-8.55522
작품	-8.55548
▁연기는	-8.55559
▁6	-8.55756
짐	-8.56094
글	-8.56116
▁살	-8.56148
▁그렇게	-8.56215
▁예	-8.56736
▁사실	-8.5688
▁지루하다	-8.57616
녀	-8.57665
잇	-8.57741
이지만	-8.57922
e	-8.58152
기에	-8.58214
대로	-8.58431
담	-8.58466
리는	-8.5857
▁아이	-8.58641
버린	-8.59078
▁같이	-8.59549
6	-8.59651
론	-8.59665
교	-8.59791
주는	-8.59843
▁모르겠다	-8.59919
▁인	-8.59974
▁분위기	-8.5999
액션	-8.60184
▁것이	-8.60287
▁설정	-8.60384
▁코믹	-8.60468
봐도	-8.60579
했	-8.60664
▁봤어요	-8.60696
▁있고	-8.60905
이었다	-8.61014
하는데	-8.61024
▁보지	-8.61141
이야	-8.61188
통	-8.61396
봄	-8.6141
증	-8.61537
이네	-8.61781
a	-8.61852
권	-8.61896
▁하나도	-8.61972
쓰레기	-8.62047
▁극장에서	-8.62127
▁강추	-8.6213
업	-8.6215
능	-8.62161
▁화	-8.62167
▁있	-8.62181
블	-8.6246
▁""	-8.62674
▁더빙	-8.62732
▁않는다	-8.62798
너	-8.62912
▁한국영화	-8.63072
▁문제	-8.63198
니다	-8.63207
봐	-8.63221
절	-8.63225
▁별점	-8.63235
된다	-8.63261
▁맞	-8.63269
▁애들	-8.63302
▁마음이	-8.63333
▁위해	-8.63364
▁위한	-8.63459
▁너무나	-8.63596
▁적	-8.63723
▁준	-8.6392
▁차	-8.64059
▁평	-8.64248
입	-8.64393
기는	-8.64453
군요	-8.64668
점을	-8.64809
▁있을	-8.6487
근	-8.65016
테	-8.65214
▁가족	-8.65345
않	-8.65389
투	-8.65556
보단	-8.65689
▁없어	-8.65697
초	-8.65744
잡	-8.65791
▁보게	-8.65839
케	-8.65894
그리고	-8.66124
재미	-8.66259
머	-8.66344
▁총	-8.66449
아니	-8.66631
▁단	-8.6669
▁좋아요	-8.66805
▁한다	-8.67342
ᅮ	-8.67357
▁존나	-8.67408
기도	-8.67512
▁주연	-8.67874
▁길	-8.68
설	-8.68235
▁들	-8.68237
▁너	-8.68292
▁정신	-8.68476
맨	-8.68716
▁봐야	-8.68772
▁행복	-8.68821
▁토	-8.68849
▁느낌이	-8.6887
9	-8.68956
▁누가	-8.68985
▁대체	-8.69063
▁그만	-8.69177
인줄	-8.69535
온	-8.69691
결	-8.69703
학	-8.69734
이네요	-8.69755
범	-8.69773
▁미친	-8.69823
을까	-8.69845
▁모습	-8.69909
다고	-8.69914
▁눈물이	-8.69934
▁매력	-8.70201
▁로맨스	-8.70309
▁내용은	-8.70505
내용	-8.70522
▁훨씬	-8.70622
▁명	-8.70677
락	-8.71122
이상	-8.71329
뭐	-8.7134
▁알고	-8.71368
▁졸	-8.71453
▁잼	-8.71805
끼	-8.71865
▁갈수록	-8.71913
▁죽	-8.72139
▁입	-8.72233
▁그나마	-8.72329
창	-8.72339
▁영화네요	-8.72622
점대	-8.72762
수준	-8.72792
▁ᄒ	-8.73048
▁위	-8.73063
건가	-8.73089
▁타	-8.731
▁감동이	-8.7312
막	-8.73127
▁가슴이	-8.7318
▁열	-8.73205
▁꽤	-8.73246
언	-8.73535
▁결말이	-8.73817
▁재밌음	-8.7382
▁장난	-8.74018
▁엔딩	-8.74024
해야	-8.74042
▁없었다	-8.74187
▁기억이	-8.7436
▁밖에	-8.74433
▁전쟁	-8.74443
영화는	-8.7447
거야	-8.7456
▁ᅮᅮ	-8.75331
▁마음	-8.75355
▁발연기	-8.75506
▁엄마	-8.75517
▁백	-8.76045
았	-8.7615
▁중국	-8.7622
슨	-8.76227
▁구성	-8.76283
이지	-8.7645
▁보여주는	-8.76459
재밌	-8.76547
▁음	-8.76648
여자	-8.76706
보니	-8.76752
색	-8.76787
▁어설픈	-8.76815
▁그래서	-8.77042
에도	-8.77175
난다	-8.7726
▁자체	-8.77262
▁따라	-8.77414
▁잡	-8.77486
나는	-8.7757
▁유치	-8.77581
▁상	-8.77596
▁재밌고	-8.77604
▁작가	-8.77829
▁연기를	-8.77855
▁들어	-8.77967
새	-8.78087
▁다큐	-8.78114
환	-8.7817
▁예술	-8.78248
좋아	-8.78325
+	-8.78331
▁-	-8.78402
▁싶	-8.78407
▁물	-8.78417
풍	-8.78484
▁똥	-8.78507
▁않다	-8.78605
빠	-8.7867
소리	-8.78856
▁최	-8.78872
년이	-8.78902
씬	-8.78934
완전	-8.79135
평	-8.79245
▁감	-8.7928
천	-8.79519
▁CG	-8.79549
▁지루	-8.79578
기를	-8.79604
▁뿐	-8.79895
짜	-8.7992
나요	-8.80097
▁영화중	-8.8045
▁찾아	-8.80496
▁치	-8.80556
▁약	-8.80591
▁딸	-8.80611
▁다들	-8.80736
▁그러	-8.80739
▁감동도	-8.80743
▁당	-8.80798
다는	-8.80821
쓰	-8.80918
▁아쉽다	-8.81005
▁극	-8.81014
▁노잼	-8.81141
▁시즌	-8.81271
▁쓰레기영화	-8.81471
"	-8.81672
▁걸작	-8.81685
플	-8.81728
▁평가	-8.81825
행	-8.82032
짓	-8.82151
▁영화관에서	-8.82219
될	-8.82239
▁간만에	-8.82311
▁상황	-8.82452
외	-8.82532
었던	-8.82548
했지만	-8.82657
▁주고	-8.83131
듯한	-8.83134
▁잔잔한	-8.83158
없고	-8.83188
▁성룡	-8.83335
▁어느	-8.83428
땜에	-8.83465
먹	-8.83487
▁존	-8.83536
>	-8.83851
▁손	-8.83977
▁사람들이	-8.83996
느낌	-8.84322
순	-8.84424
▁당시	-8.84507
션	-8.84541
뻔	-8.84638
이거	-8.84651
▁베	-8.85074
이건	-8.85132
▁30	-8.85197
▁좋은데	-8.85271
▁전부	-8.85389
▁재미없음	-8.85389
▁맘에	-8.85481
이라도	-8.85508
▁것을	-8.85614
친	-8.85665
싶	-8.85929
▁영화였다	-8.8601
영화를	-8.86021
치는	-8.86028
▁바로	-8.86126
라서	-8.86129
할때	-8.86154
리고	-8.8617
▁재미없	-8.86328
▁같아요	-8.8646
▁아님	-8.86561
▁감동적인	-8.86698
▁의미	-8.86848
▁대해	-8.86995
▁있을까	-8.8716
레이	-8.87404
습	-8.87406
▁재미있는	-8.8745
▁생각을	-8.87575
▁자기	-8.87693
▁생각보다	-8.87719
께	-8.87738
라면	-8.87814
▁재미있다	-8.87898
▁것도	-8.87937
록	-8.87978
나오는	-8.87988
것이	-8.8801
▁상당히	-8.88022
▁약간	-8.88112
▁좋	-8.88165
됨	-8.88282
▁진정한	-8.8829
열	-8.88367
거지	-8.88372
▁갈	-8.88547
치고	-8.88834
▁웃	-8.88838
침	-8.88947
었음	-8.89088
향	-8.89177
▁올	-8.89194
▁출연	-8.89223
▁얼굴	-8.89254
▁배경	-8.89317
진다	-8.89437
▁그대로	-8.89483
▁네이버	-8.89721
y	-8.89884
▁안되	-8.89898
났	-8.89936
▁점수	-8.89989
또	-8.90063
슬	-8.9009
기만	-8.90238
▁준다	-8.90268
▁친구	-8.90373
있고	-8.90474
▁간	-8.90516
▁같은데	-8.90522
▁스토리는	-8.90561
는건	-8.90678
눈	-8.90714
▁웃기	-8.90782
이야기	-8.90909
낸	-8.90915
였음	-8.90944
구요	-8.90987
▁중간에	-8.91029
수가	-8.91313
▁소리	-8.91496
▁높은	-8.91506
웃	-8.91601
▁여주인공	-8.91663
▁감동을	-8.91817
칠	-8.91894
▁감성	-8.91937
▁배우들이	-8.91943
▁판타지	-8.91956
표	-8.92211
▁여기	-8.92238
▁거의	-8.92271
편이	-8.92373
▁살아	-8.92447
▁야	-8.92495
▁재미는	-8.92512
같이	-8.92606
을때	-8.92645
▁정도로	-8.92774
▁변	-8.92937
▁재미없는	-8.93014
▁나와서	-8.93413
▁나왔	-8.93465
출	-8.9347
더니	-8.93521
▁편	-8.93598
▁아무	-8.93945
▁했는데	-8.94139
▁볼만한	-8.94176
척	-8.94248
▁힘들	-8.9425
h	-8.94283
돌	-8.94313
스러운	-8.9433
▁얘기	-8.94361
▁혼자	-8.94537
▁웃음	-8.9455
▁있지만	-8.94676
▁깨	-8.94713
셨	-8.94821
▁뭐야	-8.9485
남자	-8.95036
▁봤지만	-8.95331
퍼	-8.95356
▁높	-8.95413
나오	-8.95567
▁천	-8.95603
어야	-8.95636
에선	-8.9564
조차	-8.958
▁외	-8.95811
▁분	-8.95836
▁영화인데	-8.95897
았다	-8.96076
름	-8.96188
ᄉ	-8.9628
▁장르	-8.96431
기대	-8.96446
▁있었	-8.96453
▁이영화를	-8.96544
▁이름	-8.96696
▁먹	-8.96757
백	-8.96914
▁줄거리	-8.96972
적이	-8.97106
영화가	-8.97134
▁추억	-8.97248
▁생	-8.97258
▁봐서	-8.97307
▁된다	-8.97353
▁충격	-8.97557
햇	-8.97667
▁악	-8.97844
▁뭐지	-8.97876
▁각본	-8.97951
추	-8.98099
다면	-8.98158
▁암	-8.98281
▁감정	-8.98415
▁굉장히	-8.98449
했습니다	-8.98453
욕	-8.9848
▁등	-8.98523
▁호	-8.98532
편은	-8.98682
▁관객	-8.98728
▁추	-8.9884
▁장면이	-8.98967
할수	-8.99273
해라	-8.99287
▁보니	-8.99312
D	-8.99312
느	-8.99367
ᄋ	-8.99424
▁갑자기	-8.99465
들도	-8.99604
▁스릴	-8.99615
▁어디서	-8.99694
건데	-8.99832
▁재밌네요	-8.99881
놓고	-8.99894
▁왕	-9.00029
▁끝나	-9.00078
▁비교	-9.00118
근데	-9.00137
▁아버지	-9.00176
▁훌륭한	-9.00428
▁영화임	-9.00477
▁싸	-9.0048
♡	-9.00491
▁오래	-9.005
▁제가	-9.00504
▁힘	-9.00554
▁카	-9.0059
▁이딴	-9.00684
▁누구	-9.00723
k	-9.00771
▁새로운	-9.0087
▁저런	-9.00905
▁극장판	-9.00961
▁원작을	-9.01078
▁다음	-9.01142
▁머리	-9.01234
▁있어서	-9.01239
▁ᅳ	-9.01246
왕	-9.01249
0	-9.01276
찍	-9.013
들에게	-9.01386
▁아이들	-9.0148
린다	-9.01617
커	-9.01634
줘	-9.01653
▁경	-9.01673
r	-9.01749
▁몸	-9.01806
목	-9.0195
▁많	-9.02042
▁말도	-9.0213
혜	-9.02197
겠지	-9.02292
처	-9.02326
~!!	-9.02337
▁그리	-9.02513
▁계	-9.0253
▁재밋	-9.02582
▁방송	-9.02806
각	-9.02834
▁90	-9.02854
없음	-9.02883
▁뭐냐	-9.03065
▁화면	-9.03099
▁평점을	-9.03117
▁포	-9.03118
▁아직	-9.03487
복	-9.03549
되어	-9.03569
▁감독님	-9.03589
▁마음에	-9.03733
였	-9.03734
▁주제	-9.0379
▁영상미	-9.03792
▁허접	-9.03971
베	-9.03994
슴	-9.04045
▁잼있	-9.04054
g	-9.04119
▁생각하게	-9.04124
▁재미있어요	-9.04154
▁여배우	-9.04155
월	-9.04211
완	-9.04284
했어요	-9.04403
▁양	-9.04468
▁글	-9.04483
합	-9.04609
▁하지	-9.04671
▁포스터	-9.04769
▁주인공이	-9.04839
▁항상	-9.04943
▁메	-9.0498
▁버	-9.04985
i	-9.05067
▁달	-9.05088
▁사회	-9.05109
들어	-9.05194
▁봤음	-9.0529
▁뒤	-9.05295
빈	-9.05343
련	-9.05409
간다	-9.05442
한거	-9.05504
▁게	-9.05515
채	-9.05677
▁흥행	-9.05686
거다	-9.0574
▁맛	-9.05785
▁대단한	-9.05822
땐	-9.05925
벌	-9.06057
▁일단	-9.06137
▁있어	-9.06277
숙	-9.06318
▁못하는	-9.0633
▁그런지	-9.06373
▁코	-9.06373
길래	-9.06504
마지막	-9.06547
광	-9.06571
허	-9.06576
▁크	-9.06653
▁그러나	-9.06954
b	-9.07065
정도로	-9.07089
▁데	-9.07238
▁자체가	-9.07242
에는	-9.07256
듬	-9.07374
▁비해	-9.07469
▁가는	-9.07582
으니	-9.07585
으나	-9.07629
▁개연성	-9.07688
▁나올	-9.07705
▁비디오	-9.07906
▁봐라	-9.07987
이라면	-9.08228
▁처음부터	-9.08302
별로	-9.08327
▁집중	-9.08335
▁같	-9.08498
▁저는	-9.08554
▁가지고	-9.08693
▁충분히	-9.08764
년전	-9.08916
철	-9.08942
였는데	-9.08947
▁뭐가	-9.08966
w	-9.0903
▁언제	-9.09097
▁실	-9.09124
하냐	-9.0914
규	-9.09205
좋	-9.09296
▁궁금	-9.09345
▁TV	-9.09353
었어요	-9.0936
_	-9.09376
분들	-9.09401
▁없어서	-9.09406
n	-9.09548
▁빨리	-9.09592
▁않았	-9.09646
부분	-9.09794
▁짜증	-9.09801
▁있는데	-9.09859
처음	-9.09887
▁좋은영화	-9.0992
▁세계	-9.09922
▁이런영화	-9.10051
▁산	-9.10161
▁예상	-9.10256
츠	-9.10298
법	-9.10302
▁제작	-9.10454
덕	-9.10463
잔	-9.10464
▁영화도	-9.10522
▁꿀잼	-9.1056
▁옛날	-9.10578
▁찾	-9.10794
같다	-9.10799
▁점점	-9.10809
끝	-9.10847
▁사람은	-9.10882
▁종	-9.11038
▁너무너무	-9.11068
도록	-9.11119
▁순	-9.1112
거나	-9.11365
보기	-9.11468
▁만점	-9.11471
▁있었다	-9.11533
▁순간	-9.11618
었	-9.1167
곤	-9.11713
▁아까움	-9.11781
OO	-9.11895
▁책	-9.11924
▁잘못	-9.12001
▁관	-9.12004
▁몰입	-9.12059
별	-9.1211
▁봄	-9.12139
▁했다	-9.1215
▁안된다	-9.12263
쯤	-9.12482
품	-9.12523
주의	-9.12628
▁꿈	-9.12671
▁(	-9.12704
▁여주	-9.12898
▁초딩	-9.12963
청	-9.13234
적이고	-9.13252
뜨	-9.13273
지금	-9.13308
▁삼류	-9.13351
▁나의	-9.13359
귀	-9.13517
▁레	-9.13593
했고	-9.13664
하니	-9.13675
▁더욱	-9.13712
▁이유	-9.13834
▁번	-9.13929
▁패	-9.13996
▁좋네요	-9.1401
▁나이	-9.14015
▁영화라	-9.14021
른	-9.14046
혀	-9.14076
▁나온다	-9.14188
라니	-9.14192
배우들	-9.14229
내가	-9.14375
시대	-9.14491
약	-9.14565
▁완벽	-9.14577
▁부족	-9.14685
▁멜로	-9.1509
▁부분	-9.151
▁시절	-9.15105
▁잠	-9.15152
다시	-9.15564
술	-9.1561
▁현	-9.15625
▁써	-9.159
사람들	-9.15921
▁보여주	-9.16
▁작	-9.16068
▁돌	-9.16096
▁그닥	-9.16103
▁좋겠다	-9.16129
되고	-9.16286
▁첨	-9.16304
맞	-9.16417
▁하다	-9.16428
최악	-9.16482
잖아	-9.165
▁선택	-9.1653
▁역	-9.16531
곡	-9.16531
▁재미있	-9.16571
▁도저히	-9.16671
▁것은	-9.16675
거냐	-9.16709
▁쳐	-9.16867
메	-9.16895
▁유치한	-9.16916
▁볼만	-9.16919
▁무조건	-9.17031
▁한마디로	-9.17101
이라니	-9.17172
▁진행	-9.17181
▁엄청난	-9.17256
▁어릴때	-9.17293
▁과거	-9.17299
▁노력	-9.17351
연출	-9.17493
익	-9.17496
▁요	-9.17583
효	-9.17639
전개	-9.17718
▁키	-9.17779
▁참고	-9.17882
▁아쉬운	-9.17923
▁놀	-9.17936
마다	-9.17936
▁이영화는	-9.18007
▁불륜	-9.18077
쪽	-9.18102
▁전개가	-9.18156
겠	-9.18163
▁아닌가	-9.18204
▁다시봐도	-9.18232
▁성우	-9.18264
기가	-9.18267
▁생각해	-9.18336
놈	-9.18396
▁예전에	-9.18437
▁편집	-9.18515
▁망작	-9.18572
▁슬픈	-9.18585
쉬	-9.18598
염	-9.18718
▁100	-9.18749
▁지금까지	-9.18785
틀	-9.18843
l	-9.18879
▁돌아	-9.19003
▁소설	-9.19124
▁낮은	-9.19166
▁대단	-9.19237
▁두번	-9.19439
재미있	-9.19457
만한	-9.19549
▁어디	-9.1956
▁따뜻한	-9.19605
▁그때	-9.1965
▁낫다	-9.19659
하여	-9.19748
▁지나	-9.19845
▁숨	-9.19951
스럽다	-9.1998
튼	-9.20019
▁따	-9.20047
▁재밌는데	-9.20063
▁재밌었다	-9.20102
▁해서	-9.20135
이게	-9.20136
▁팬	-9.20153
▁나와	-9.20192
보다는	-9.20218
지고	-9.20233
것같다	-9.20249
브	-9.2045
걸까	-9.20488
▁모르고	-9.20515
존	-9.20578
▁보는데	-9.20643
▁짜	-9.20688
▁원래	-9.20711
나라	-9.20728
나서	-9.20772
▁봤네요	-9.20789
많	-9.20816
▁쓴	-9.20826
▁돈주고	-9.20882
▁이미	-9.20947
먼	-9.21036
대박	-9.21083
u	-9.21091
▁삼	-9.21108
▁만족	-9.21137
졌	-9.21152
▁존재	-9.212
거리	-9.21289
성이	-9.21306
▁첫	-9.21383
▁감독은	-9.21435
도없고	-9.2149
▁없네	-9.21563
-_-	-9.21603
엇	-9.21678
▁인물	-9.21768
하던	-9.21768
▁80	-9.21796
세요	-9.21824
▁댓글	-9.21849
▁사랑을	-9.21863
▁윤	-9.21872
념	-9.21914
▁물론	-9.22136
이냐	-9.22255
▁지루해	-9.22294
▁새	-9.22299
▁이것도	-9.22346
▁질	-9.22566
:	-9.22647
책	-9.22704
앗	-9.22915
▁사람들은	-9.23053
▁모르는	-9.23055
▁힘든	-9.231
▁복수	-9.23162
▁자꾸	-9.23248
놈들	-9.23357
▁설	-9.23564
▁봐	-9.23576
▁있음	-9.23619
▁결혼	-9.23626
▁초반	-9.23631
롭	-9.23645
봐라	-9.23649
립	-9.23668
명작	-9.23671
보다가	-9.23725
▁통	-9.23748
▁만나	-9.23782
해지는	-9.2381
▁죽음	-9.23841
▁역사	-9.2387
음악	-9.23879
만들	-9.23919
▁완벽한	-9.23949
시리즈	-9.23956
▁ᄍᄍ	-9.24012
▁설명	-9.24058
▁흠	-9.24108
년도	-9.24334
료	-9.24334
▁그래픽	-9.24343
그래도	-9.24391
▁까	-9.24399
몰	-9.24421
링	-9.24468
▁전형적인	-9.24469
▁합니다	-9.24702
들과	-9.24716
▁귀신	-9.24732
▁더럽게	-9.24774
▁없을	-9.24866
▁그게	-9.25123
▁늘	-9.2514
▁찍	-9.2521
▁미화	-9.25264
▁아빠	-9.25298
????	-9.25333
▁실화	-9.25343
▁저질	-9.25375
삼	-9.25506
좋은	-9.25555
굿	-9.25575
싸	-9.25728
▁여성	-9.25764
▁반전이	-9.25807
▁괜히	-9.25839
보는데	-9.25879
주인공	-9.26059
▁오히려	-9.26217
▁예고편	-9.26231
올	-9.26245
▁느낄	-9.26317
겠지만	-9.26404
▁상상	-9.26408
함을	-9.2644
▁만들었	-9.2647
년에	-9.26547
▁있다는	-9.2663
p	-9.26649
▁웃긴	-9.26654
겟	-9.26807
아이	-9.26821
▁느끼게	-9.26851
혹	-9.26873
▁이정도	-9.26927
▁목소리	-9.26948
▁연출이	-9.26948
▁개그	-9.26986
▁없네요	-9.27068
찬	-9.27084
▁부족한	-9.2712
▁영화보다	-9.27184
▁알았다	-9.27238
▁억지로	-9.27346
▁무서운	-9.27381
▁알게	-9.27396
▁만들지	-9.27416
어도	-9.2742
▁뭔지	-9.27471
00	-9.27487
이에요	-9.27487
본다	-9.27493
▁병맛	-9.27505
▁나라	-9.27552
▁평점은	-9.27783
▁이리	-9.27906
런	-9.27955
탈	-9.2796
▁헐	-9.28025
지않	-9.28088
▁SF	-9.28289
▁완성도	-9.28361
▁우연히	-9.28368
그런	-9.28405
윤	-9.28446
하세요	-9.28545
▁일본영화	-9.28606
는걸	-9.28643
봐서	-9.28651
▁인정	-9.28662
에요	-9.28753
많이	-9.28936
▁귀	-9.29016
▁방	-9.29043
점짜리	-9.29111
▁인간의	-9.29114
▁만드	-9.29197
▁연출력	-9.29216
▁어린	-9.29227
하는거	-9.29259
▁현재	-9.29277
▁감동적이	-9.29327
▁이야기를	-9.29349
맛	-9.29383
십	-9.29423
일까	-9.2955
▁대한민국	-9.29578
▁믿고	-9.29625
모르	-9.29629
▁평점에	-9.29706
만으로도	-9.29792
f	-9.29805
▁어색	-9.29836
아서	-9.29866
▁신기	-9.29889
짝	-9.30046
▁볼수	-9.30048
~~~~	-9.30064
징	-9.30094
▁진실	-9.30187
c	-9.3019
을듯	-9.30243
▁스타일	-9.3032
▁이상한	-9.30435
▁기대하고	-9.30446
▁돈이	-9.30452
속에	-9.30614
▁비슷한	-9.30727
▁좋았어요	-9.30782
▁아무것도	-9.30792
m	-9.30825
▁권	-9.3087
여서	-9.31125
▁세상	-9.31214
꼬	-9.31282
강추	-9.31286
좋다	-9.3141
▁꼬	-9.31594
하긴	-9.31647
▁작품성	-9.31679
영화다	-9.31695
▁재미없어	-9.31764
▁서로	-9.31773
^	-9.31784
▁b	-9.31826
▁대작	-9.31826
끔	-9.3189
▁문	-9.31976
▁온	-9.32005
▁프랑스	-9.32045
말이	-9.32218
▁휴	-9.32301
▁좋음	-9.32362
졌다	-9.32434
▁액션도	-9.32471
한번	-9.32494
▁처음으로	-9.32545
딱	-9.32672
인거	-9.32711
더군요	-9.33025
▁배우가	-9.33058
▁특유의	-9.33109
▁재미있고	-9.33151
▁이후	-9.33246
E	-9.33305
에겐	-9.33318
▁듯한	-9.33324
▁ost	-9.33329
▁재밌어	-9.33433
▁금	-9.33439
▁성장	-9.33471
▁형	-9.33573
족	-9.33574
▁바보	-9.33655
했을	-9.33782
▁으	-9.33817
▁알았는데	-9.33863
▁가치	-9.33884
▁여운	-9.33885
재밋	-9.33924
▁해준	-9.33992
한데	-9.34008
지루	-9.34044
▁않을	-9.34134
▁천재	-9.34145
이면	-9.34168
봐야	-9.34177
아닌	-9.3422
▁앞으로	-9.34228
주세요	-9.34367
▁낮	-9.34372
▁코메디	-9.34414
리가	-9.34481
▁대단하다	-9.34777
▁수가	-9.34835
함이	-9.34842
▁전작	-9.34966
아깝다	-9.3498
▁것이다	-9.34995
▁트	-9.35087
써	-9.35163
킹	-9.35168
▁태	-9.35175
▁지루하지	-9.3518
▁청춘	-9.35203
역시	-9.35212
▁흥미진진	-9.35229
................	-9.35368
였던	-9.3538
▁지금도	-9.35404
▁졸라	-9.35448
▁질질	-9.35482
▁마무리	-9.35507
▁흥미	-9.35516
결말	-9.35595
▁이런거	-9.35613
▁이런걸	-9.35623
▁화이팅	-9.35685
으며	-9.35757
▁아이들이	-9.35826
▁말고	-9.35863
▁감사	-9.35904
▁이번	-9.35974
▁이러	-9.36139
▁캐	-9.36147
자가	-9.36226
▁어렸을때	-9.36243
▁19	-9.36318
▁모습이	-9.36348
▁교훈	-9.36382
드는	-9.3647
▁유치하고	-9.365
▁해도	-9.3663
▁M	-9.3674
▁왜이리	-9.36781
▁않았다	-9.36801
▁킬링타임용	-9.36889
변	-9.37001
▁만들었다	-9.37024
▁액션영화	-9.3707
오는	-9.37106
보면서	-9.37128
▁재미없고	-9.37156
무슨	-9.37161
재미없	-9.37194
▁황	-9.37198
▁클	-9.37204
났다	-9.37215
훈	-9.37344
하시	-9.37455
▁지난	-9.37515
▁맞는	-9.37571
▁골	-9.37659
▁소름	-9.37697
만든	-9.37743
▁멋있	-9.3776
반전	-9.37765
페	-9.37868
▁실제	-9.37984
패	-9.38029
&	-9.38033
는것	-9.38074
▁시청률	-9.38081
있는데	-9.38101
▁둘	-9.38113
웃음	-9.38148
답	-9.38156
▁확	-9.38203
것이다	-9.38246
▁프로	-9.38247
놓은	-9.38276
▁tv	-9.38367
▁노출	-9.38391
추천	-9.38403
▁않음	-9.38626
특	-9.38841
▁장면은	-9.38844
▁유머	-9.3886
엉	-9.38896
였습니다	-9.38921
가족	-9.38957
억	-9.38992
▁속편	-9.39053
▁시대	-9.39059
▁리	-9.39085
방송	-9.39121
한영화	-9.39231
▁아쉽	-9.39319
▁병	-9.3949
렌	-9.39497
▁화려한	-9.39498
애니	-9.3959
▁또한	-9.39639
가서	-9.39806
▁아니지만	-9.39868
▁명작이다	-9.39975
▁그렇고	-9.3999
힌	-9.3999
▁귀여운	-9.40004
밀	-9.40071
▁비추	-9.40111
▁ᄒᄒᄒ	-9.40127
▁알아	-9.40132
▁광	-9.40166
▁겁나	-9.4018
하자	-9.40263
웠	-9.40308
했는지	-9.40375
▁식	-9.40422
▁알았	-9.40487
떨어	-9.40539
▁관람	-9.40542
▁본다	-9.4063
네여	-9.4063
▁남주	-9.40773
▁사랑이	-9.40807
수록	-9.40808
▁작품이	-9.40874
▁게임	-9.40944
▁아닐까	-9.40956
▁저도	-9.41087
점준다	-9.41132
▁진부한	-9.41161
▁했	-9.41223
▁관계	-9.4126
▁몰	-9.41396
▁먹먹	-9.41401
▁분명	-9.4151
면서도	-9.41533
작가	-9.41557
준다	-9.41643
▁왠지	-9.4176
시켜	-9.41893
▁최악이다	-9.41948
량	-9.41958
셔	-9.41975
▁어찌	-9.42023
▁감상	-9.4209
하는게	-9.42201
▁사건	-9.4225
▁좋았고	-9.42375
에서는	-9.42417
▁행동	-9.42519
▁좋았습니다	-9.42538
▁C	-9.42568
▁떠나	-9.42702
모습	-9.42775
받	-9.4297
랄	-9.42984
▁전체적으로	-9.43016
이렇게	-9.4306
▁뻔	-9.43145
독	-9.43162
▁없었	-9.43182
T	-9.43235
▁신선	-9.43238
▁자유	-9.4326
꼭	-9.43262
▁복	-9.4329
갑	-9.43503
▁성인	-9.43555
20	-9.43569
갔	-9.43591
▁내인생	-9.43595
▁보여준	-9.43616
▁짜증나	-9.43621
▁경찰	-9.43626
▁군대	-9.43772
▁그래	-9.43788
사람이	-9.43808
분이	-9.43813
성을	-9.43827
▁나쁜	-9.43876
▁보여	-9.43911
▁생각한다	-9.43942
했으면	-9.4396
@	-9.43999
▁나만	-9.44081
▁이어	-9.44258
▁아들	-9.44292
령	-9.44353
▁마치	-9.44458
▁그런데	-9.44494
▁무엇보다	-9.44593
▁영화였습니다	-9.4462
▁삶을	-9.44633
▁허접한	-9.44647
▁눈이	-9.44654
▁느끼	-9.44659
▁스토리에	-9.44668
▁같습니다	-9.44702
▁되어	-9.44723
▁시간낭비	-9.44725
▁먼저	-9.44738
▁지루하	-9.44758
졸	-9.44778
실망	-9.44841
▁끝내	-9.44979
순간	-9.45049
ᅲᅲᅲ	-9.45103
▁성공	-9.45136
▁티	-9.45138
▁상상력	-9.45199
▁주인공들	-9.45205
인이	-9.45274
견	-9.45307
▁살인	-9.45328
▁보고나서	-9.4536
얼	-9.45387
▁목	-9.45402
▁한계	-9.4542
황	-9.45478
▁극장	-9.45486
▁별루	-9.45505
▁대충	-9.45516
▁회	-9.45553
을텐데	-9.45565
겠네	-9.45571
▁너무나도	-9.45574
▁하면	-9.45577
▁재밌었어요	-9.45651
▁받	-9.45745
▁중에	-9.45819
전에	-9.45866
있게	-9.45878
▁터	-9.46016
버렸다	-9.46039
▁일상	-9.46074
앙	-9.46076
▁범죄	-9.4608
▁깊이	-9.46098
▁안보	-9.46103
눈물	-9.46125
▁독	-9.46157
나옴	-9.46262
친구	-9.46288
엄	-9.46423
특히	-9.46435
%	-9.46544
려서	-9.46584
▁소재는	-9.466
마음	-9.46613
▁그녀	-9.46618
와서	-9.46828
▁한편	-9.46836
▁좀비	-9.46867
줘야	-9.46904
▁못하고	-9.46937
▁낚	-9.47072
인간	-9.47086
▁로맨틱	-9.47146
▁깊은	-9.47154
▁집	-9.47185
▁지금봐도	-9.47274
▁떠	-9.47338
시는	-9.47352
▁이젠	-9.47411
버리	-9.47508
낮	-9.47658
▁확실히	-9.47687
▁취	-9.47744
▁드라마를	-9.47953
▁영화중에	-9.47986
▁다소	-9.48028
거같다	-9.48048
▁자신의	-9.48069
▁상영	-9.48094
닥	-9.48129
▁투	-9.48147
재밌게	-9.48165
▁어이없는	-9.48261
걸로	-9.4838
▁싫어	-9.48384
▁바람	-9.48525
▁영화에서	-9.48587
풀	-9.48703
▁담	-9.48743
▁액션이	-9.48872
야지	-9.48913
▁카메라	-9.48941
시키	-9.48961
▁자신	-9.48991
거임	-9.49059
▁아오	-9.49061
▁잘봤습니다	-9.49091
누	-9.49092
한건	-9.49166
▁각	-9.49169
취	-9.49212
되지	-9.49222
득	-9.49253
▁보이는	-9.49264
▁어색한	-9.49279
=	-9.49298
▁마음을	-9.49334
▁좋았는데	-9.49369
이제	-9.49409
▁있었던	-9.49455
▁디	-9.49477
▁용	-9.49794
던가	-9.49795
▁읽	-9.49802
깨	-9.49817
S	-9.49822
손	-9.49823
축	-9.49828
▁여자들	-9.49907
▁좋았음	-9.49941
▁눈을	-9.49956
팬	-9.50047
▁영웅	-9.50132
▁하는데	-9.50228
▁모습을	-9.5029
송	-9.50295
코미디	-9.50381
최	-9.50399
▁세상에	-9.50424
그러	-9.50426
▁같네요	-9.50457
▁왜이렇게	-9.50577
▁자연	-9.50603
▁드	-9.5062
으면서	-9.50763
▁그런가	-9.50782
로운	-9.5082
▁처	-9.50843
▁독립영화	-9.50865
▁이영화가	-9.50882
▁사이	-9.50891
x	-9.50924
B	-9.50984
▁매력적인	-9.51131
▁잘만든	-9.51195
최고의	-9.51261
▁이야기가	-9.5134
▁평론가	-9.51397
▁여자가	-9.51429
보세요	-9.51452
벨	-9.5149
스타	-9.5149
▁범인	-9.51526
▁수준이	-9.51527
▁고민	-9.51587
▁빠져	-9.51662
시간이	-9.51695
▁흐	-9.51706
▁이것	-9.51838
▁급	-9.51842
▁연애	-9.51877
~^^	-9.51903
▁절	-9.51918
▁촬영	-9.51941
씩	-9.51977
휴	-9.52018
▁낭비	-9.52023
던지	-9.52037
▁스케일	-9.52049
▁유쾌한	-9.52074
들아	-9.52095
▁프로그램	-9.52144
스런	-9.52242
▁커	-9.52301
▁이런게	-9.52354
▁믿	-9.52374
▁부분이	-9.52419
코드	-9.52421
▁순수한	-9.5245
ᄀ	-9.52525
텐데	-9.52545
있어	-9.52599
ᄌ	-9.52604
▁느껴지는	-9.52644
▁아놔	-9.52734
▁감사합니다	-9.52794
▁리얼	-9.52804
▁입니다	-9.52887
소재	-9.52924
▁훨	-9.5296
드라	-9.53001
필	-9.5301
없어	-9.53032
것은	-9.53068
▁인상	-9.53151
▁리메이크	-9.53174
일뿐	-9.53189
▁동화	-9.53266
▁단순	-9.53271
한듯	-9.53311
▁이쁘	-9.53323
에서도	-9.53415
하라	-9.53508
▁ᄉᄇ	-9.53515
▁맥	-9.53693
▁붙	-9.53699
됬	-9.53797
딸	-9.53841
▁함	-9.53888
▁찍은	-9.53902
▁팔	-9.5391
▁심리	-9.53961
▁저예산	-9.53991
▁내용을	-9.54067
▁매력이	-9.54103
▁교	-9.54139
이며	-9.54186
▁답	-9.54196
▁딴	-9.54269
때마다	-9.54338
▁감탄	-9.5435
쿠	-9.54363
▁기분이	-9.544
▁스토리와	-9.54439
▁역대	-9.54446
▁OST	-9.54447
▁떨어지는	-9.54454
▁나에게	-9.54499
나온	-9.54563
주고	-9.54574
▁해주는	-9.54636
럽	-9.54697
▁15	-9.54773
▁역시나	-9.54783
빨	-9.54825
더만	-9.54826
▁중간중간	-9.54879
▁여전히	-9.54898
▁현대	-9.54902
▁처음이다	-9.54981
노잼	-9.55091
▁괴	-9.55132
▁독특한	-9.55253
가지	-9.55328
▁ᄏᄏᄏᄏᄏ	-9.5544
항	-9.55443
하려는	-9.55446
▁예전	-9.55455
▁아니면	-9.55517
▁메세지	-9.55563
시절	-9.55573
쇼	-9.55577
▁훌륭	-9.55645
▁그랬	-9.55703
▁끌	-9.55718
▁현실성	-9.55728
보이	-9.55871
▁나를	-9.55955
▁중간	-9.55998
▁받아	-9.56023
ᅲᅲᅲᅲ	-9.56024
찌	-9.5608
▁홍	-9.56148
▁아저씨	-9.56172
▁든다	-9.56201
▁벌	-9.56259
시킨	-9.56367
▁초반에	-9.56377
▁-_-	-9.5641
▁돌려	-9.56424
▁아닌데	-9.56522
▁전달	-9.56545
▁긴	-9.56562
돼	-9.56571
▁마라	-9.56579
▁좋을	-9.56605
▁섹시	-9.56607
▁소재를	-9.56629
▁유쾌	-9.56634
▁했지만	-9.56651
▁봤었는데	-9.56654
▁찍어	-9.56729
▁<	-9.5678
▁맨	-9.56828
고싶다	-9.56867
▁틀	-9.56941
▁젤	-9.56983
▁연기력이	-9.5701
아깝	-9.57027
▁역할	-9.57044
▁보지마세요	-9.57062
▁평범한	-9.57075
▁나오고	-9.57142
해주는	-9.57143
감독이	-9.57148
*	-9.57201
▁어이없	-9.57208
▁됐	-9.57224
▁사람을	-9.57291
만으로	-9.57407
▁시선	-9.57457
응	-9.57466
버리고	-9.57503
▁삶	-9.57519
인것	-9.57597
▁신선한	-9.57651
▁볼때마다	-9.57693
▁답답	-9.57759
▁그림	-9.57767
(?)	-9.5778
되서	-9.57786
▁슬픔	-9.5779
려는	-9.57792
▁정치	-9.57792
버려	-9.57816
▁있다면	-9.57858
짜리	-9.57859
▁전편	-9.5788
나고	-9.57907
▁안나오	-9.57921
활	-9.57925
충	-9.5794
▁제작진	-9.57941
▁사극	-9.57969
▁해야	-9.57979
급영화	-9.58002
▁분들	-9.58066
었지만	-9.58131
;;;;	-9.58176
빵	-9.58227
몬	-9.5837
껄	-9.5837
▁리뷰	-9.58376
까진	-9.58381
▁싶어	-9.58382
▁저렇게	-9.58429
▁애들이	-9.58431
▁누	-9.58487
엿	-9.58613
▁드는	-9.58627
▁아름답고	-9.58637
▁아름답다	-9.58712
내요	-9.58732
새끼	-9.5881
든다	-9.58813
▁귀엽고	-9.58816
▁가진	-9.58887
▁흘러	-9.58916
ᄂ	-9.58952
떡	-9.58956
ᄆ	-9.58965
▁미래	-9.58971
▁예쁜	-9.58972
▁호러	-9.59048
v	-9.59208
유치	-9.5921
▁이유가	-9.59219
었습니다	-9.59241
클	-9.5927
▁아깝	-9.5939
▁나중에	-9.59407
▁알수	-9.59467
▁평생	-9.59496
영화중	-9.59524
▁그들의	-9.59558
어쩌	-9.59613
▁꼴	-9.59618
▁전에	-9.5968
▁굳이	-9.59706
홍	-9.59752
▁표정	-9.59768
▁괴물	-9.59833
니깐	-9.59857
많은	-9.59924
끌	-9.59948
▁드라마가	-9.60063
▁티비	-9.60065
▁액션은	-9.60125
▁벗	-9.60186
▁짱짱	-9.60193
▁살짝	-9.60195
▁악역	-9.6024
▁아는	-9.60299
ᄃ	-9.60371
▁등장	-9.60375
▁감동적이고	-9.60438
▁고전	-9.60447
▁뒷	-9.6047
탕	-9.60521
둘	-9.60536
▁끝나고	-9.60573
팔	-9.60577
놓	-9.60608
ᄍᄍ	-9.60655
▁슬프다	-9.60741
▁희생	-9.6078
▁표절	-9.60791
▁통해	-9.60808
▁사랑하는	-9.60859
▁죄	-9.60868
//	-9.6088
▁안되고	-9.60894
프로	-9.60938
시키는	-9.60939
▁않아	-9.60993
재미없다	-9.61016
▁보고싶다	-9.61127
제목	-9.61155
욱	-9.61213
쓴	-9.61244
▁우울	-9.61253
▁참신	-9.61306
릭	-9.61349
▁얼	-9.61419
▁어릴적	-9.61436
▁바라	-9.61444
만들어	-9.61451
▁재밌었는데	-9.61545
나올	-9.61565
▁후반	-9.61606
ᄏᄏᄏᄏᄏᄏᄏᄏᄏᄏᄏᄏᄏᄏᄏᄏ	-9.61647
▁웃겨	-9.61687
A	-9.61837
▁하게	-9.61897
▁춤	-9.61906
굴	-9.61981
▁끝난	-9.62029
▁과연	-9.6206
▁분노	-9.62083
▁보기엔	-9.62091
▁보는게	-9.62118
▁기대를	-9.62134
같	-9.62145
지마라	-9.62239
하는지	-9.62259
▁용서	-9.62293
▁몰입이	-9.62427
골	-9.62432
암	-9.62441
C	-9.625
거라	-9.62501
말고	-9.62558
▁남는다	-9.62563
▁능력	-9.62599
낼	-9.62613
▁압권	-9.62614
줌	-9.62618
▁니	-9.62639
마저	-9.6264
▁종교	-9.62647
인생	-9.62725
▁근	-9.62755
▁연기에	-9.62757
▁라는	-9.62823
로서	-9.62912
▁잔인	-9.62913
▁스토리를	-9.62964
하셨	-9.62998
센	-9.6303
▁안하고	-9.63058
▁게이	-9.63127
▁느	-9.63181
감이	-9.63291
▁안됨	-9.63385
▁포장	-9.63388
▁아닌듯	-9.6344
좋아요	-9.6351
▁연기와	-9.63521
▁몰입감	-9.63528
▁나가	-9.63551
▁재밌었	-9.63618
번째	-9.63702
하다니	-9.63757
뜻	-9.63779
진심	-9.63797
▁싫다	-9.63804
더라구요	-9.6382
▁우정	-9.63848
▁월	-9.63874
줬	-9.63884
▁짜증나는	-9.63892
▁추천합니다	-9.64015
▁cg	-9.6408
머리	-9.64095
람	-9.64175
▁음악이	-9.64226
▁생각합니다	-9.64226
▁메시지	-9.64307
▁무지	-9.6433
만화	-9.64391
▁잼있게	-9.64409
스터	-9.64418
▁짠	-9.6448
▁이연걸	-9.64489
▁만들어진	-9.64519
하려고	-9.64546
▁말로	-9.64612
▁허무	-9.6466
--	-9.64702
▁그의	-9.64709
할듯	-9.64716
▁처음엔	-9.64717
▁채	-9.64758
▁나서	-9.64761
씨가	-9.64843
▁여러	-9.64856
▁멋	-9.6486
▁알바들	-9.64862
기엔	-9.64882
동안	-9.64911
한게	-9.64947
첨	-9.65028
▁열심히	-9.65032
죄	-9.65044
총	-9.65054
협	-9.65067
▁먼	-9.6507
▁폭력	-9.65079
잉	-9.65108
▁보고싶	-9.65127
됐	-9.65239
▁사는	-9.65262
▁홍콩	-9.65293
▁나왔으면	-9.65294
▁다행	-9.65366
▁출	-9.65376
하면서도	-9.65515
▁느끼는	-9.65542
▁스타	-9.65563
▁더이상	-9.65576
▁포기	-9.65627
▁공감이	-9.65714
▁긴장	-9.65728
▁짓	-9.6574
뚱	-9.65758
ᄒᄒᄒ	-9.65871
▁이건뭐	-9.65964
▁묘사	-9.66026
▁접	-9.66031
오빠	-9.66067
뒤	-9.66072
▁난다	-9.66079
영환	-9.66097
▁했던	-9.66104
다른	-9.66124
놀	-9.66149
괴	-9.66189
좋았	-9.6624
▁티비에서	-9.66241
▁개판	-9.66253
▁뮤지컬	-9.66411
표현	-9.66468
안에	-9.66487
▁가지	-9.66599
▁있지	-9.66636
누나	-9.66704
▁같아	-9.66709
▁밀	-9.66737
▁달리	-9.66772
▁봤다가	-9.6678
▁시원	-9.66783
잼있	-9.6683
혼	-9.66844
▁빼	-9.6686
▁되었다	-9.66882
▁아까워	-9.66915
▁칼	-9.6693
▁희망	-9.67013
▁빛	-9.67017
▁봤으면	-9.67044
▁밑에	-9.67048
▁많다	-9.67052
▁영화이다	-9.67058
해준	-9.67072
▁A	-9.67208
▁설레	-9.67221
▁낫	-9.67282
▁중요한	-9.67283
▁주인공의	-9.67292
▁같음	-9.67334
것을	-9.6742
."	-9.67433
▁황당	-9.67448
▁표	-9.67478
▁기본	-9.67546
맞추	-9.6757
영상	-9.67688
했어	-9.67712
▁그렇다	-9.6778
▁볼거리	-9.67839
속에서	-9.67996
▁I	-9.68084
▁40	-9.68103
없네	-9.68114
▁+	-9.68118
먹고	-9.68231
▁재미를	-9.6831
▁보시길	-9.6833
▁몸매	-9.68404
폐	-9.68448
▁고생	-9.68468
북	-9.68478
내는	-9.68579
▁인기	-9.68611
지않은	-9.68638
르는	-9.68669
드리	-9.68695
재밌어요	-9.68702
랬	-9.68768
아님	-9.68795
▁자막	-9.68815
▁소녀	-9.68856
지마	-9.68858
▁국	-9.6887
,,,,	-9.68924
▁크게	-9.68938
▁사랑과	-9.68942
▁재미있음	-9.68983
년전에	-9.6899
▁올리	-9.68992
렉	-9.69002
힐	-9.69005
▁이유는	-9.69074
▁다만	-9.69088
▁사랑에	-9.691
끄	-9.69118
▁영화보고	-9.69154
▁이정도면	-9.69211
▁진심으로	-9.69212
▁생각나는	-9.69241
▁재밌습니다	-9.69246
일이	-9.69256
점주는	-9.69277
▁덜	-9.69313
▁무섭다	-9.69493
▁민	-9.695
▁만든다	-9.69596
다운	-9.69617
▁되게	-9.69738
▁퀄리티	-9.69824
엄마	-9.69885
▁흐름	-9.6992
을수	-9.6997
얘기	-9.70058
전쟁	-9.70147
▁죽어	-9.70155
했나	-9.70162
랜	-9.70171
하겠	-9.70311
아주	-9.70319
▁별로다	-9.70328
▁쉽게	-9.70343
었고	-9.70445
on	-9.70514
▁그럭저럭	-9.70562
▁북한	-9.706
▁풀어	-9.70622
▁명작이	-9.70639
▁다큐멘터리	-9.70669
는건지	-9.70707
▁오버	-9.70803
▁최근	-9.70911
롱	-9.70975
▁제목이	-9.70986
었으면	-9.71017
▁없지만	-9.71071
▁볼수록	-9.71113
▁좋았던	-9.71206
스럽	-9.713
▁재미없네	-9.71336
▁어제	-9.71374
▁삶의	-9.71422
▁어쩔	-9.71545
▁그려	-9.71552
▁지루해서	-9.71558
껏	-9.71576
타임	-9.71625
▁후반부	-9.71632
퇴	-9.7164
ᄅ	-9.7168
▁디즈니	-9.71681
▁언제나	-9.71695
▁지루할	-9.71728
하는것	-9.718
캐릭터	-9.7187
▁남을	-9.71921
▁감동과	-9.72103
▁몇번을	-9.72134
였지만	-9.72171
▁해피엔딩	-9.72185
▁아쉬움	-9.72192
▁그걸	-9.7221
▁굳	-9.72223
▁쓰래기	-9.72266
▁영화지만	-9.72278
막장	-9.72288
▁젊은	-9.72297
▁가볍게	-9.72361
▁비주얼	-9.72361
▁힐링	-9.72361
▁남아	-9.72366
▁S	-9.72379
▁드라마는	-9.72399
▁불편	-9.72483
▁친	-9.7254
▁정서	-9.72551
이해	-9.72601
리스	-9.7264
킨	-9.7264
▁봐야할	-9.72652
▁창	-9.72682
로써	-9.72764
재밌다	-9.7286
▁보고싶은	-9.72898
▁싫	-9.73029
▁소재가	-9.73031
★	-9.73045
자들	-9.73068
▁그다지	-9.73137
내용이	-9.73153
▁느낄수	-9.73246
ᄏᄏᄏᄏᄏ	-9.73287
▁유치함	-9.73308
▁돌아가	-9.73358
▁동생	-9.73388
인의	-9.73454
▁재밋게	-9.7352
대사	-9.73558
▁엉성한	-9.73567
▁배우의	-9.73615
▁폭	-9.73618
▁추억의	-9.73653
였어요	-9.73665
뿌	-9.73698
ᅡ	-9.73736
▁12	-9.73739
▁싸구려	-9.73741
애들	-9.73745
▁눈빛	-9.73754
▁있나	-9.73853
▁관심	-9.73868
가지고	-9.73885
▁샤	-9.73964
▁씨	-9.73972
▁똑같	-9.74022
▁소재로	-9.7407
ᄃᄃ	-9.74081
함과	-9.74255
▁몰라도	-9.74261
▁아깝지	-9.74321
▁놀라	-9.74327
▁못했다	-9.74332
하구	-9.74585
▁재미있네요	-9.74699
▁필요없는	-9.74701
접	-9.74778
확	-9.74814
세기	-9.74894
▁높다	-9.74909
er	-9.74989
탁	-9.75096
▁만큼	-9.75102
N	-9.75115
j	-9.75129
녕	-9.75129
폰	-9.75129
▁70	-9.75232
▁필요없다	-9.75238
▁몰랐	-9.75251
▁넣	-9.75464
▁ᅮ	-9.75466
했네	-9.75476
▁청	-9.75483
▁동물	-9.75543
예요	-9.75615
▁보았	-9.75622
▁맘	-9.75651
놔	-9.75671
▁좋아서	-9.75673
기분	-9.75685
줄이야	-9.75691
왔	-9.75814
콜	-9.75821
▁연예인	-9.75834
봣는데	-9.75893
▁국민	-9.75901
▁섹스	-9.75962
▁잔인한	-9.75963
되면	-9.76052
사이	-9.76148
하신	-9.76231
▁우리가	-9.76252
끈	-9.76252
▁킬링타임	-9.76278
▁광고	-9.76375
현실	-9.76394
▁슬프고	-9.76412
춘	-9.76503
일본	-9.76523
▁헐리우드	-9.76543
▁슬프	-9.76567
봉	-9.76651
▁다시한번	-9.76671
▁돋	-9.76786
▁끝나는	-9.76809
중의	-9.76856
킬	-9.77001
스릴러	-9.7702
▁가서	-9.7702
M	-9.77024
▁글쎄	-9.771
▁그럼	-9.77105
력이	-9.7713
웅	-9.77186
▁가끔	-9.77305
빡	-9.77355
▁악당	-9.77361
했다는	-9.77396
있음	-9.7744
사회	-9.77461
▁반전도	-9.77502
▁들었	-9.77502
▁점수를	-9.77531
▁재밌네	-9.77572
폭	-9.77595
좋고	-9.77649
▁홍보	-9.77659
떠	-9.77764
▁페	-9.77773
한다는	-9.77809
▁보러	-9.7786
▁이제야	-9.77862
▁법	-9.77922
▁ᄃᄃ	-9.77925
댄	-9.77976
털	-9.77977
▁불구하고	-9.77977
▁아픔	-9.78015
▁마세요	-9.78046
▁요소	-9.78059
▁찡	-9.78163
▁지구	-9.78171
▁우주	-9.7824
▁사람의	-9.78262
▁문화	-9.7828
▁그린	-9.78321
▁않게	-9.78343
한다면	-9.7836
▁만들고	-9.78394
웃기	-9.78544
험	-9.7855
공포	-9.78676
▁s	-9.78712
▁뛰어난	-9.78733
▁방금	-9.78747
▁펑펑	-9.78752
▁사랑스러운	-9.7881
시고	-9.79115
▁멀	-9.79127
▁음악도	-9.79176
나와서	-9.79201
웠다	-9.79261
▁브	-9.793
▁찍었	-9.79302
온다	-9.79341
개봉	-9.79406
팅	-9.79424
▁어려운	-9.79431
O	-9.79472
▁잊혀지지	-9.79496
으론	-9.79514
▁에로	-9.79588
픈	-9.79644
▁진정	-9.79678
▁의심	-9.79701
▁나쁘지	-9.79724
옥	-9.79843
▁돋보	-9.79865
▁개인	-9.79867
▁있게	-9.79875
▁실패	-9.7994
▁아마	-9.79957
▁죽이	-9.79977
착	-9.80004
▁연출도	-9.80022
▁인생을	-9.80033
▁웃기고	-9.80056
섭	-9.80066
점준	-9.80072
▁발전	-9.8009
▁다르	-9.80101
명이	-9.80122
흑	-9.80135
▁로그인	-9.80167
▁갑	-9.80184
▁시사회	-9.80205
빼고	-9.80238
▁임	-9.80238
했으나	-9.80239
▁생애	-9.80246
▁둘다	-9.80278
▁좋습니다	-9.80314
♥♥	-9.80319
▁볼만함	-9.80391
▁올해	-9.80438
▁식상	-9.8045
▁영화관	-9.80467
▁낮아서	-9.80469
▁되지	-9.80479
필요	-9.8048
▁딱히	-9.80495
▁쫌	-9.80565
▁산으로	-9.80643
헤	-9.80652
빙	-9.80688
학생	-9.80742
▁없나	-9.80762
땅	-9.80818
택	-9.80832
홀	-9.80879
]	-9.80907
▁아름다움	-9.80907
▁무언가	-9.80909
하지도	-9.80925
▁달라	-9.80958
▁연결	-9.80978
▁그것	-9.81045
▁결과	-9.81085
▁엉망	-9.81153
▁열정	-9.8117
나가는	-9.81208
할까	-9.8122
▁모르겠	-9.81229
한것	-9.81237
▁유치하다	-9.81289
마리	-9.81302
▁유명	-9.8152
답답	-9.81571
▁죄다	-9.81597
▁죽는	-9.81617
자체가	-9.8162
용으로	-9.8164
▁많아	-9.81647
▁순수	-9.81695
높	-9.81705
▁베스트	-9.81706
▁생생	-9.81745
▁단연	-9.81805
▁무섭	-9.81833
인들	-9.81859
▁느와르	-9.81878
▁불쌍	-9.81908
같음	-9.81916
▁반성	-9.81941
▁헤	-9.81988
▁킬링타임용으로	-9.82
▁거지	-9.82054
무비	-9.82081
웨	-9.82088
▁한국인	-9.82097
▁철	-9.82109
▁빌려	-9.82134
▁캐릭터들	-9.82137
▁탈	-9.8217
대는	-9.82352
세상	-9.82371
▁차이	-9.82375
틱	-9.824
▁어머니	-9.82436
▁고통	-9.82478
▁싶었	-9.82512
▁평이	-9.82546
▁평범	-9.8261
▁재밌었음	-9.82613
에대한	-9.82654
▁어이가	-9.82662
봣	-9.82686
▁조폭	-9.82762
▁봣는데	-9.82795
원작	-9.82889
▁풀	-9.82904
나게	-9.83039
우리	-9.83043
▁시간을	-9.83051
▁정말로	-9.83056
캐	-9.83101
구성	-9.83146
엠	-9.8316
▁청소년	-9.83163
연기가	-9.83335
▁남겨	-9.83337
▁몰입해서	-9.8334
▁출연진	-9.83424
▁좀더	-9.83491
▁의도	-9.83512
▁보이	-9.83515
▁집에서	-9.83674
정신	-9.83722
▁인간이	-9.83748
▁멋지다	-9.83762
▁괜찮	-9.83782
▁자극	-9.83785
▁귀엽	-9.83795
▁나왔다	-9.83802
왔다	-9.83829
평점이	-9.83843
▁연속	-9.83869
▁히	-9.83912
값	-9.83913
R	-9.83926
인가요	-9.83932
▁눈물을	-9.83948
아니다	-9.83961
엘	-9.83965
▁결말은	-9.84035
▁어른	-9.84084
것만	-9.8419
▁핵	-9.8419
스타일	-9.842
지않고	-9.84249
▁탄탄한	-9.84336
▁이쁜	-9.84365
▁여기서	-9.84434
▁무서워	-9.84466
▁힘들다	-9.84471
▁좋았	-9.84504
▁채널	-9.8452
먹는	-9.84543
▁결말도	-9.84664
닝	-9.84695
▁헐리웃	-9.84696
▁스스로	-9.84698
영화라고	-9.84698
▁멍청한	-9.84702
▁질리지	-9.84705
▁괜찮았	-9.84725
연기도	-9.84749
▁뜻	-9.8478
다는게	-9.84783
▁해주	-9.84812
▁아직까지	-9.84918
▁사기	-9.84919
▁현실적인	-9.84937
짜증	-9.84988
▁볼만하다	-9.85006
▁표현한	-9.85008
쳤	-9.8502
▁인간들	-9.85029
▁시걸	-9.85032
내용도	-9.85091
▁전문가	-9.85106
▁말을	-9.8511
▁보았다	-9.85209
안되	-9.85222
늘	-9.85268
▁단순한	-9.85299
▁끌어	-9.85307
버리는	-9.85324
▁뻔하고	-9.8533
스가	-9.85369
▁하면서	-9.85383
▁옛날에	-9.85386
▁볼만하	-9.85442
틈	-9.85465
▁견자단	-9.85471
▁흔한	-9.85491
▁하루	-9.85509
시다	-9.85517
한다고	-9.856
▁환상	-9.85667
▁루	-9.85684
▁나오면	-9.85723
▁떠나서	-9.85796
편보다	-9.85812
▁남녀	-9.85845
으로써	-9.85863
중에서	-9.85863
멋	-9.8594
▁있습니다	-9.86018
▁대화	-9.86025
▁빈	-9.86045
re	-9.8615
이었	-9.86179
정이	-9.86188
아쉬	-9.86192
만드는	-9.86215
!!!!!	-9.86216
쁘	-9.86253
점수	-9.86266
▁전체	-9.86274
▁꺼	-9.86338
해주세요	-9.86379
자는	-9.86443
나온다	-9.8651
▁제작비	-9.86513
▁생각없이	-9.86668
▁무엇을	-9.86683
▁미드	-9.8669
사가	-9.86712
▁못한다	-9.86721
으려	-9.86813
▁200	-9.86847
편의	-9.86885
▁재미있었다	-9.86886
▁드럽게	-9.86894
▁시대를	-9.86943
노래	-9.86956
▁안돼	-9.86958
▁굿굿	-9.86992
▁보니까	-9.87024
릿	-9.87028
스러워	-9.87045
▁벌써	-9.87052
시작	-9.87062
▁장면에서	-9.87085
했네요	-9.87112
▁느낌을	-9.87151
슈	-9.87169
▁매력적이	-9.87173
▁영국	-9.87175
감을	-9.87237
보는내내	-9.87255
내고	-9.8731
친다	-9.87319
an	-9.87322
밑	-9.87399
▁무시	-9.87438
언니	-9.87507
▁느낀	-9.87511
럼	-9.87546
▁지금은	-9.87559
긴한데	-9.87583
▁찌	-9.87628
▁말할	-9.87647
하는건	-9.87673
꾸	-9.87673
사는	-9.8768
▁네	-9.87681
▁이후로	-9.87724
냥	-9.87736
스러움	-9.87812
▁레전드	-9.87833
▁즐겁게	-9.87838
▁무서웠	-9.87851
나와	-9.87862
▁지켜	-9.87909
▁시각	-9.87921
▁좋았을	-9.88016
▁할말	-9.88033
▁남편	-9.88036
▁조연	-9.88067
▁모든게	-9.88067
▁d	-9.88069
▁말하는	-9.88101
▁잔잔하고	-9.88122
▁단지	-9.88128
▁높아	-9.88161
▁T	-9.88249
▁작가가	-9.88262
▁야한	-9.88263
▁나오지	-9.88302
보자	-9.88313
▁관객들	-9.88315
세계	-9.88326
▁않지만	-9.88344
계속	-9.88366
장면이	-9.88367
▁남자가	-9.88432
▁놓	-9.88453
▁운	-9.88559
혁	-9.88596
압	-9.88597
▁기대안하고	-9.88635
▁위대한	-9.88635
▁나옴	-9.88657
▁발견	-9.88666
▁판	-9.8868
▁매력있	-9.88706
하더라	-9.88726
▁주변	-9.88729
OOO	-9.88769
잠	-9.88787
▁건지	-9.88791
▁영어	-9.88831
▁배우들도	-9.88844
넣	-9.88882
▁같아서	-9.88932
▁이해할	-9.88951
기위해	-9.88956
or	-9.88957
있네	-9.88968
기억	-9.88993
아까	-9.89079
▁누구나	-9.89113
11	-9.89125
▁어렸을	-9.89143
묘	-9.89163
거면	-9.89264
지를	-9.8934
가슴	-9.89351
▁환	-9.89377
▁발로	-9.89416
▁재밋다	-9.89434
떄	-9.89439
컨	-9.89439
톱	-9.89439
▁누군가	-9.8944
▁빠	-9.89441
▁끝이	-9.89482
겁니다	-9.89527
놨	-9.89553
▁있어요	-9.89645
차라리	-9.89666
▁안보고	-9.89693
센스	-9.89706
▁밥	-9.89732
▁유쾌하고	-9.89734
▁싶네요	-9.89786
였고	-9.89797
"""	-9.89819
영화로	-9.89827
갔다	-9.89877
▁50	-9.89944
▁시도	-9.89992
▁생각하는	-9.90027
▁쓸	-9.90037
▁끼	-9.90099
▁"""	-9.90099
흔	-9.90126
시간에	-9.90182
`	-9.90252
▁뜨	-9.90266
▁맨날	-9.90303
들만	-9.90305
▁영화냐	-9.90309
▁갈등	-9.90314
▁반복	-9.90333
▁필	-9.90367
▁이런영화가	-9.90373
▁느껴	-9.9038
남는	-9.90407
사람은	-9.90436
▁하네요	-9.90472
쩌	-9.90529
더라도	-9.90566
그리	-9.90584
님의	-9.90588
관계	-9.906
▁국내	-9.90607
▁앞	-9.90623
▁되고	-9.90656
젠	-9.90672
따라	-9.90703
는것도	-9.90714
▁비슷	-9.90716
▁않나	-9.90718
▁김기덕	-9.90727
▁아나	-9.9074
▁;;	-9.90786
겹	-9.90823
받는	-9.90825
▁한심	-9.90851
았던	-9.90906
▁못해	-9.90909
▁유명한	-9.90948
려면	-9.91014
▁재밌을	-9.91046
▁눈에	-9.91063
해진	-9.91084
계의	-9.91175
▁이거보고	-9.91183
ᅲᅮ	-9.91226
냈	-9.91309
▁허세	-9.9134
젤	-9.91364
▁보길	-9.91386
▁영화에요	-9.91444
▁못할	-9.91488
닌	-9.91559
▁안타깝다	-9.9159
▁시트콤	-9.91617
▁인물들	-9.91687
▁한참	-9.91701
상을	-9.91851
▁싶지	-9.91852
잤	-9.91874
이니	-9.91878
혈	-9.91899
▁쵝오	-9.91899
즘	-9.91934
흐	-9.91968
▁잊지	-9.91985
▁공부	-9.92012
▁내려	-9.92101
▁생각하고	-9.9213
몽	-9.92161
님들	-9.92165
봅니다	-9.92254
▁ᅲᅲᅲ	-9.92276
▁넘어	-9.92297
▁아이돌	-9.92303
몰입	-9.92311
▁진지	-9.92358
쉽	-9.9236
▁하는지	-9.92388
▁멋있다	-9.92441
딩	-9.92444
와는	-9.92449
해야지	-9.92496
▁모르겠고	-9.92521
줘서	-9.92521
▁쇼	-9.92542
▁떨어지	-9.92543
▁꾸	-9.92567
설정	-9.92572
.......	-9.92626
▁있네요	-9.9264
뛰	-9.92708
▁보인다	-9.92735
스의	-9.92745
▁줌	-9.92747
▁찌질	-9.92802
하려	-9.92838
in	-9.92852
씬은	-9.93001
I	-9.93069
밥	-9.93087
자의	-9.93113
▁부르	-9.93124
▁c	-9.93134
지말고	-9.93172
▁미모	-9.93178
▁투자	-9.93181
▁개연성이	-9.93276
냈다	-9.93329
억지	-9.93337
▁늘어	-9.93384
▁울었다	-9.93397
돌아	-9.93408
찰	-9.93453
▁받았	-9.93547
▁보고나면	-9.93564
솔	-9.9357
▁즐거운	-9.93572
례	-9.93572
▁멍청	-9.93573
▁로봇	-9.93577
........	-9.9364
▁행	-9.93645
▁있으면	-9.93671
▁코난	-9.9368
▁불쾌	-9.93706
▁무척	-9.93719
편을	-9.93737
▁울고	-9.93755
▁죽여	-9.93813
형님	-9.93968
▁부모	-9.93984
것들	-9.93989
기로	-9.9411
ᄏᄏᄏᄏᄏᄏᄏᄏᄏ	-9.94131
▁씬	-9.9418
▁진리	-9.94185
괜찮	-9.9421
▁그렇다고	-9.94215
▁당시에	-9.9423
▁음악과	-9.94249
▁에휴	-9.94338
▁빼고	-9.94382
▁대부분	-9.94409
▁뭉클	-9.9442
▁의외로	-9.9444
▁힘이	-9.94452
이였다	-9.94481
▁달달	-9.94486
▁송	-9.94487
▁시시	-9.94519
끝나	-9.94583
으로서	-9.94605
▁이기	-9.94617
▁한데	-9.94624
▁옛	-9.94671
▁아줌마	-9.94675
▁이쁘고	-9.94703
들고	-9.9478
▁착한	-9.94792
부작	-9.94802
▁대사가	-9.94803
▁에피소드	-9.94846
▁필요한	-9.94853
▁영화였어요	-9.94872
무섭	-9.94897
져서	-9.94899
학교	-9.94905
왔는데	-9.95062
▁웃음이	-9.95135
자체	-9.95135
봐요	-9.95151
영화임	-9.95199
▁되었	-9.95246
뽑	-9.95251
▁[	-9.95257
▁007	-9.95276
▁망한	-9.95314
▁와우	-9.95336
째	-9.95352
▁없는데	-9.95395
▁여행	-9.95509
▁아쉽네요	-9.95512
▁우와	-9.95541
하던데	-9.95564
할수있	-9.95576
▁있어야	-9.9559
▁부터	-9.95596
장난	-9.95684
있었	-9.95702
▁재미없어요	-9.95746
▁살고	-9.9582
▁왜케	-9.95913
▁속에	-9.96026
▁팬이	-9.96095
▁긴장감도	-9.96112
▁덕분에	-9.96118
▁전투	-9.96124
ᅵ	-9.96136
▁초등학생	-9.96136
▁마이너스	-9.96136
▁봤더니	-9.96136
▁좋게	-9.96143
▁경험	-9.96153
▁복잡	-9.96167
▁친구들	-9.96219
▁엉성	-9.96249
보게	-9.96268
▁낳	-9.96308
▁이미지	-9.96312
▁자살	-9.96483
겁	-9.96508
▁이쁘다	-9.96597
▁인생의	-9.96609
▁노답	-9.96644
싱	-9.96666
▁썩	-9.96686
상황	-9.96727
있나	-9.9675
▁혼	-9.96755
만들었	-9.9679
▁잔	-9.96826
▁신선하고	-9.96874
▁짝퉁	-9.96954
▁수도	-9.96961
됐다	-9.96963
▁마이클	-9.96971
뮤	-9.97006
▁the	-9.97006
▁good	-9.97058
▁재미있었어요	-9.97071
▁최강	-9.97071
▁작품을	-9.97105
▁조합	-9.97123
▁듣	-9.97134
▁모르겠지만	-9.97158
이런영화	-9.97167
만큼은	-9.97192
했을까	-9.97194
짜증나	-9.97219
▁학교에서	-9.97223
▁기술	-9.97251
내내	-9.97286
▁지루했다	-9.97291
▁하나하나	-9.97385
▁받을	-9.97406
▁감동적	-9.97449
었어	-9.97475
▁미안	-9.9748
있어서	-9.97506
깔	-9.9755
알바	-9.97587
▁좋지만	-9.976
▁헤어	-9.97636
▁꽃	-9.97653
▁시청자	-9.97669
▁어렵	-9.97699
▁적당	-9.97752
만의	-9.97755
▁작품이다	-9.97783
버릴	-9.97786
콘	-9.97792
▁무비	-9.97819
균	-9.97864
▁빼고는	-9.97876
▁더불어	-9.97886
해진다	-9.97918
▁민망	-9.97928
문화	-9.97931
▁살려	-9.97989
식으로	-9.98002
집니다	-9.98009
▁슈퍼	-9.98069
▁없었던	-9.98093
▁극치	-9.98137
▁제로	-9.98145
▁결	-9.98149
▁바뀌	-9.98153
▁본인	-9.98154
▁13	-9.98198
▁논	-9.98213
하지마라	-9.98256
▁충	-9.98269
ar	-9.98329
▁작은	-9.98345
하시는	-9.9836
이었음	-9.98374
요즘	-9.984
샤	-9.98476
문제	-9.9853
▁착	-9.98553
▁삶에	-9.98625
▁암튼	-9.98635
흘리	-9.98636
했었는데	-9.98669
스럽고	-9.98675
▁손발이	-9.98691
칭	-9.98768
▁카리스마	-9.98768
닉	-9.98768
▁흥미로운	-9.98782
▁명품	-9.98785
동생	-9.98831
▁더러운	-9.98853
▁양심	-9.98891
▁외모	-9.98902
▁좋았지만	-9.98927
연기력	-9.98993
셈	-9.99007
▁죽은	-9.99031
▁a	-9.99033
▁침	-9.99037
워서	-9.99041
잇는	-9.99048
느라	-9.99066
이라서	-9.99108
▁자식	-9.99157
켜	-9.99198
한국	-9.99228
▁쩐다	-9.99245
하기엔	-9.9928
간의	-9.99384
아쉽	-9.99511
씨의	-9.99583
이자	-9.9964
뉴	-9.99653
▁바꿔	-9.99661
칸	-9.99661
퀴	-9.99661
▁외계인	-9.99661
끝까지	-9.99662
▁직접	-9.99662
▁주성치	-9.99663
▁썼	-9.99677
하다가	-9.9971
▁기다리	-9.99742
▁일품	-9.99765
▁비극	-9.99776
▁최고입니다	-9.99797
재밌음	-9.998
▁영화인듯	-9.99845
▁취향	-9.9987
▁부족하다	-9.99887
▁방법	-9.99903
▁박수를	-9.9992
럴	-9.99967
점정도	-10.0005
얻	-10.0007
▁피해자	-10.0008
감동적	-10.0011
▁들어가	-10.0012
▁즐기	-10.0014
겠어요	-10.0019
▁오바	-10.0026
▁동안	-10.0027
▁싸이코	-10.0029
▁푹	-10.0032
르고	-10.0033
it	-10.0035
▁어린이	-10.0035
▁독특	-10.0037
잡고	-10.0044
▁지루하게	-10.0051
W	-10.0056
땡	-10.0056
받고	-10.0057
▁좋았으나	-10.0058
▁따뜻해지는	-10.0059
▁의리	-10.0061
▁어휴	-10.0063
▁역대급	-10.0065
모르겟	-10.0066
▁있던	-10.0066
▁감정을	-10.0066
엔딩	-10.0069
▁학교	-10.0069
▁뇌	-10.007
▁말하고	-10.0071
▁해석	-10.008
제발	-10.0081
고싶은	-10.0084
▁미소	-10.0085
매력	-10.0088
인건	-10.0091
엇다	-10.0096
▁보자	-10.01
▁이하	-10.0101
까지는	-10.0107
▁18	-10.0113
▁본다면	-10.0119
▁뭐라	-10.0129
▁용기	-10.013
쥐	-10.013
시즌	-10.0132
율	-10.0138
것같	-10.0147
농	-10.0147
▁고양이	-10.0147
▁좋겠어요	-10.0153
▁한번쯤	-10.0155
▁다룬	-10.0155
까요	-10.0161
▁게다가	-10.0164
▁완전히	-10.0174
▁의미를	-10.0184
상태	-10.0184
▁아침	-10.0193
▁아이가	-10.0194
▁주말	-10.0206
▁잊을	-10.0209
▁체	-10.021
▁실제로	-10.0212
지않는	-10.0212
▁앤	-10.0212
▁설마	-10.0216
안되는	-10.0221
▁중반	-10.0224
▁올라	-10.0228
콩	-10.0231
좋아하는	-10.0233
▁그럴	-10.0235
▁쓰레기같은	-10.0236
슬프	-10.0237
컷	-10.0238
둔	-10.0239
▁지나치게	-10.0239
▁원작의	-10.024
스럽게	-10.024
배경	-10.0241
▁웃기지도	-10.0243
▁철학	-10.0253
▁사랑은	-10.0254
▁뛰어	-10.0254
▁볼수있	-10.0258
쳤다	-10.0258
▁안타깝	-10.0262
▁교육	-10.0267
출연	-10.0268
▁기대했는데	-10.0269
▁연기력도	-10.0269
셔서	-10.0269
▁비판	-10.0276
▁포르노	-10.0292
▁충격적	-10.0297
새끼들	-10.0301
▁괜찮다	-10.0305
▁도전	-10.0309
읽	-10.0311
▁잊	-10.0324
▁모르	-10.0325
튀	-10.0329
▁웃김	-10.0331
▁느껴진다	-10.0333
▁일어나	-10.0335
ing	-10.0338
▁이유를	-10.034
▁중에서	-10.0343
흘	-10.0344
생겼	-10.0346
▁군	-10.0348
년만에	-10.0351
▁많았	-10.0351
▁크리스마스	-10.0367
감독님	-10.0369
명의	-10.0374
▁사랑의	-10.0378
▁패러디	-10.0382
▁안나	-10.0383
▁어른들	-10.0384
▁올려	-10.0385
▁케이블	-10.0387
았습니다	-10.0398
▁좋아해서	-10.04
▁보며	-10.04
▁놈	-10.0403
▁한명	-10.0404
▁꿈을	-10.041
님이	-10.0411
▁원작이	-10.0414
▁없지	-10.0414
중독	-10.0414
꼴	-10.0417
층	-10.0425
is	-10.0425
곳	-10.0427
▁남자의	-10.0428
▁평점보고	-10.0433
그래서	-10.0436
▁엄	-10.0438
▁십	-10.0439
힘	-10.0442
▁연기자들	-10.045
▁모르게	-10.0458
하기도	-10.0462
▁이래	-10.0463
▁진부하고	-10.0466
▁않을까	-10.0468
▁개성	-10.0471
보네	-10.0472
▁상처	-10.0483
▁많고	-10.0489
▁똑같은	-10.0498
▁전설의	-10.0502
▁답답한	-10.0502
▁보여준다	-10.0508
▁오글	-10.0509
▁할까	-10.051
벽	-10.0517
▁아까울	-10.0519
▁넘치는	-10.0521
▁몇몇	-10.0522
▁반개도	-10.0523
▁봤을때	-10.0524
▁인상적이	-10.0528
▁모를	-10.0534
▁사랑이야기	-10.0534
▁행복한	-10.0534
▁좋아할	-10.0547
▁왠	-10.0549
▁시청	-10.0551
▁견	-10.0555
치곤	-10.056
▁갔	-10.0563
▁무협	-10.0568
▁대중	-10.0572
▁뿐이다	-10.0572
▁개봉한	-10.0579
올리	-10.0579
뭔가	-10.0581
받은	-10.0583
▁생각나	-10.059
미치	-10.0592
것인가	-10.0592
공감	-10.0593
개도	-10.0594
하고싶은	-10.0595
▁찬	-10.0596
았음	-10.0599
ᅮᅮᅮ	-10.06
▁먹고	-10.0601
룡	-10.0602
똥	-10.0603
▁합	-10.061
아까움	-10.0611
▁보지마	-10.0612
껴	-10.0613
▁뒤로	-10.0613
.........	-10.0614
▁블랙	-10.0614
켓	-10.0614
▁가능	-10.0614
롤	-10.0614
줬다	-10.0614
얼굴	-10.0615
▁잠깐	-10.0615
냄새	-10.0615
▁재밌다고	-10.0616
돋	-10.0616
▁훈훈한	-10.0617
▁레알	-10.062
▁없다는	-10.062
▁곳	-10.0625
▁:	-10.0629
▁신경	-10.0633
▁밤	-10.0636
▁최대	-10.0648
▁지루하기	-10.065
시길	-10.0653
▁관한	-10.0654
▁가득	-10.0661
▁싶은데	-10.067
▁무섭지도	-10.0671
▁잭	-10.0671
버림	-10.0672
▁아프	-10.0674
▁이해하기	-10.068
▁홍콩영화	-10.0687
..;;	-10.0688
▁슬	-10.069
▁가슴에	-10.0693
멘	-10.0696
따위	-10.0696
▁빨	-10.0699
않는	-10.07
▁따로	-10.0702
붕	-10.0703
▁들었다	-10.0705
략	-10.0706
0%	-10.0707
액	-10.0709
▁디테일	-10.0711
쟁이	-10.0714
속의	-10.0723
▁꼽	-10.0727
▁해결	-10.0728
▁간다	-10.0728
▁검	-10.0728
▁끊	-10.0741
▁빠진	-10.0742
감독의	-10.0747
사람들이	-10.0749
딴	-10.0756
▁오랜만	-10.0763
살아	-10.0768
▁대해서	-10.0781
▁얼마	-10.0789
▁주기	-10.0794
▁하는거	-10.0796
사람들은	-10.0801
공포영화	-10.0801
이즈	-10.0805
겠습니다	-10.0808
넹	-10.0808
▁스트레스	-10.0808
▁전기세	-10.0808
▁ᄋᄋ	-10.0809
▁감흥	-10.0809
덤	-10.0814
밤	-10.0816
더빙	-10.0819
나오고	-10.0819
▁재미잇	-10.0823
초반	-10.0827
오늘	-10.0829
▁빠져들	-10.0831
▁보여줬	-10.0832
▁보내	-10.0838
▁낚시	-10.0846
▁커플	-10.0851
▁이럴	-10.0851
부족	-10.0852
으니까	-10.0861
▁왠만하면	-10.0868
▁한마디	-10.0872
▁선생님	-10.0872
마지막에	-10.0875
겠음	-10.0882
어진	-10.0884
▁그녀의	-10.0885
▁이용	-10.0896
▁좋아하는데	-10.0896
빛	-10.0898
쌍	-10.0901
기까지	-10.0904
▁이제서야	-10.0906
▁소중한	-10.0906
▁기다려	-10.0907
▁생각하면	-10.0909
▁관점	-10.0911
붙	-10.0911
▁존경	-10.0914
▁변태	-10.0915
멍	-10.0916
푸	-10.0922
▁애기	-10.0925
쏘	-10.093
▁꽝	-10.093
▁현실이	-10.0932
▁갖	-10.0935
▁막판에	-10.0944
공주	-10.0951
그래	-10.0954
▁필름	-10.0961
때부터	-10.0967
▁실력	-10.0968
▁재미와	-10.0969
▁한국영화는	-10.0972
▁긴장감이	-10.0982
▁보려고	-10.0985
나왔	-10.0992
▁앞으로도	-10.0993
점줌	-10.1001
▁아련	-10.1004
렁	-10.1005
▁DVD	-10.1005
▁젠장	-10.1005
▁풍경	-10.1005
▁화가	-10.1006
▁개뿔	-10.1008
▁안맞	-10.101
▁개막장	-10.1018
어떻게	-10.102
논	-10.102
장애	-10.102
G	-10.1021
▁통쾌	-10.1022
보지	-10.1022
▁당신	-10.1023
배우들의	-10.1028
▁감히	-10.1029
▁기자	-10.1032
!!!!!!!!!	-10.1033
라스	-10.1033
▁악마	-10.1033
▁잼있다	-10.1042
▁있었지만	-10.1045
되네요	-10.1052
빨리	-10.106
▁한심한	-10.106
▁미쳤	-10.1064
잃	-10.1067
▁탑	-10.1074
바닥	-10.1085
▁괜찮은데	-10.1091
겠네요	-10.1093
▁자주	-10.1094
▁죽이는	-10.1096
▁그거	-10.1098
▁맞아	-10.1102
♥♥♥	-10.1104
납니다	-10.1106
▁겨우	-10.1107
▁말도안되는	-10.1108
▁웃기다	-10.1109
▁할머니	-10.111
▁그렇지	-10.1115
▁점수가	-10.1116
랜드	-10.112
▁속에서	-10.112
겟다	-10.1122
▁욕망	-10.1124
▁야동	-10.1125
▁추억이	-10.1125
▁이때	-10.1125
▁있으	-10.1126
▁망치	-10.113
▁전개도	-10.113
▁봣	-10.1135
▁인해	-10.1135
▁웃고	-10.1136
▁감동적이다	-10.1145
▁작가님	-10.1151
▁믿을	-10.1154
편도	-10.1157
자나	-10.1167
▁결론	-10.1171
▁하나의	-10.1172
▁심하게	-10.1175
▁쓰레기다	-10.1178
▁못함	-10.1179
텔	-10.1179
트리	-10.1179
보구	-10.118
짧	-10.1183
있냐	-10.1184
했다고	-10.1192
되나	-10.1192
▁우리의	-10.1193
싶다	-10.1194
이걸	-10.1198
▁스크린	-10.1206
st	-10.1207
▁어린시절	-10.1207
거같은데	-10.1208
▁웬	-10.1214
왔습니다	-10.1219
▁무술	-10.122
▁있구나	-10.1221
P	-10.1233
싸움	-10.1234
▁보여주고	-10.1235
▁보긴	-10.1235
였어	-10.1238
▁정의	-10.1241
냐고	-10.1248
▁졸리	-10.1257
▁없어요	-10.126
것같아요	-10.1264
▁헛	-10.1265
▁생각함	-10.1288
자를	-10.1289
▁퍼	-10.1291
▁봤었	-10.1291
▁됨	-10.1293
볼만	-10.1294
혹은	-10.1294
스톤	-10.1296
옹	-10.1306
깜	-10.1308
▁흑인	-10.1311
다운받	-10.1312
보다도	-10.1312
▁둘이	-10.1314
▁빵점	-10.1318
▁짝이	-10.132
상실	-10.132
▁깨닫게	-10.132
▁O	-10.1321
다니는	-10.1321
▁짜증난다	-10.1323
식이	-10.1327
▁영화보면서	-10.1331
쓸	-10.1334
흥	-10.1339
▁줬	-10.134
▁보통	-10.1342
▁내면	-10.1343
감정	-10.1346
▁왜이래	-10.1353
▁편견	-10.1361
▁할말이	-10.1366
편에	-10.1373
점이다	-10.1374
모든	-10.1376
▁돼	-10.1377
몇	-10.1382
▁쓰는	-10.1383
▁어릴	-10.1387
▁케	-10.1391
~!!!	-10.1391
▁본영화	-10.1393
▁본방사수	-10.1397
▁장르가	-10.1398
인물	-10.1399
▁언	-10.1401
년도에	-10.1402
듯이	-10.1404
▁모두가	-10.1404
▁비디오로	-10.1406
▁자신이	-10.1406
컬	-10.1411
삐	-10.1411
K	-10.1411
▁재미없게	-10.1412
▁거짓말	-10.1416
▁참신한	-10.1418
▁최초	-10.1418
▁에이	-10.1424
▁만들면	-10.1427
현실을	-10.143
▁아픈	-10.1434
꿀잼	-10.1435
▁죽는줄	-10.1436
▁떨어진다	-10.1438
▁옥	-10.1442
큰	-10.1443
▁맹	-10.145
어린	-10.1453
▁본거	-10.1456
베리	-10.1458
▁세상을	-10.1471
임에도	-10.1471
주면	-10.148
▁다루	-10.1481
보여	-10.1482
▁않네요	-10.1484
하기만	-10.1498
▁영화보는	-10.1499
검	-10.15
▁아내	-10.1508
받아서	-10.1508
▁우리는	-10.1512
▁심각	-10.1513
셀	-10.1515
멸	-10.1515
▁전쟁영화	-10.1516
▁2014	-10.1516
▁영원히	-10.1519
아요	-10.1525
버전	-10.1526
▁방영	-10.1527
▁색감	-10.1537
▁일이	-10.1537
▁위해서	-10.1541
▁잊을수	-10.1542
▁할수	-10.155
▁봉	-10.1555
▁낮다	-10.1557
▁재미있었	-10.1558
보지말	-10.1559
▁있는지	-10.1562
▁위로	-10.1563
▁소름이	-10.1566
제작	-10.1567
▁못하다	-10.1573
옴	-10.1584
▁조화	-10.1585
▁봤을	-10.1586
▁시리즈중	-10.1591
▁끄	-10.1594
도아니고	-10.1603
거리는	-10.1612
당한	-10.1616
▁어이	-10.1619
ᄇ	-10.1619
쿨	-10.162
▁동성애	-10.162
손가락	-10.1621
▁특별한	-10.1624
▁바꾸	-10.1624
▁화려하	-10.1629
▁관객을	-10.163
생활	-10.1632
▁형님	-10.1634
▁평론가들	-10.1636
▁캐릭터가	-10.1648
▁사진	-10.1649
하겠다	-10.1655
▁생각나서	-10.166
▁감안	-10.166
모두	-10.1662
그만	-10.1669
잔잔	-10.1678
▁어쩔수	-10.1679
부분이	-10.1682
소설	-10.1684
▁야구	-10.1684
좋앗	-10.1686
티비	-10.1686
▁받는	-10.1688
▁국가	-10.1692
안됨	-10.1694
머니	-10.1704
▁옷	-10.171
건가요	-10.1713
▁조작	-10.1716
▁재난영화	-10.1719
▁11	-10.1719
학년	-10.1723
묵	-10.1726
▁잔뜩	-10.1727
▁여러가지	-10.1729
뭐야	-10.173
▁정도의	-10.1731
▁모험	-10.1731
▁색	-10.1732
▁심심	-10.1733
▁콩	-10.1735
▁하늘	-10.1735
▁빌	-10.1735
▁알겠는데	-10.1736
▁단어	-10.1741
▁오로	-10.1742
▁재밌던데	-10.1742
▁몇번	-10.1742
▁대놓고	-10.1743
30	-10.1745
▁자신을	-10.1752
▁그건	-10.1754
▁불러	-10.1759
▁배우를	-10.176
▁영혼	-10.1763
요소	-10.1766
자리	-10.177
허접	-10.1772
어디	-10.1773
솔직히	-10.1773
L	-10.1775
신고	-10.1775
▁시간가는줄	-10.1785
▁나은	-10.1786
▁만든영화	-10.1787
▁훌륭하다	-10.1787
▁명작입니다	-10.1791
▁몇년	-10.1792
▁느꼈다	-10.1792
분은	-10.1794
V	-10.1805
▁작품은	-10.1816
물을	-10.1818
▁가치가	-10.1827
▁부모님	-10.1833
▁안타까운	-10.1834
▁다르다	-10.1839
▁여름	-10.1843
▁액션씬	-10.1845
▁감동의	-10.1851
▁보았습니다	-10.1852
▁만들다니	-10.1857
▁도망	-10.1858
▁보지마라	-10.186
▁멋지	-10.1861
▁없습니다	-10.1869
없어서	-10.1869
▁이것이	-10.1871
▁흥	-10.1874
▁효과	-10.1876
X	-10.1877
▁있었는데	-10.1884
랄까	-10.1885
스키	-10.1886
▁대본	-10.1891
았는데	-10.1897
▁제외	-10.1898
▁분들은	-10.1899
좋음	-10.1901
극장	-10.1908
▁촌스럽	-10.1911
▁이런영화를	-10.1916
▁아예	-10.1917
지도않고	-10.1919
▁돌리	-10.1919
▁드립니다	-10.1924
오글	-10.1926
닐	-10.1927
ᄏᄏᄏᄏᄏᄏᄏᄏᄏᄏᄏᄏᄏ	-10.1929
하길	-10.193
▁쿠	-10.1931
▁형사	-10.1935
춰	-10.194
숭	-10.1943
▁짜임새	-10.1943
렷	-10.1943
쥬	-10.1943
▁아이디어	-10.1943
▁색다른	-10.1944
▁무엇인지	-10.1947
▁억지스러운	-10.195
만듬	-10.1953
▁비밀	-10.1953
▁모르겠음	-10.1961
▁쥐	-10.1963
보이는	-10.1965
▁최근에	-10.1966
▁살아가는	-10.1966
▁갖고	-10.1967
▁이래서	-10.1967
적이다	-10.1968
▁명화	-10.1971
▁나머지	-10.1973
▁등등	-10.1976
했지	-10.1978
▁배역	-10.1981
▁끈	-10.1985
▁최고였다	-10.199
사건	-10.1992
앞에서	-10.1997
주연	-10.2005
개그	-10.201
▁노래도	-10.2029
▁ᄋ	-10.2034
야할	-10.2037
도대체	-10.2041
▁높게	-10.2042
고싶어	-10.2043
거같아요	-10.2045
만하다	-10.2046
닿	-10.2048
▁빠지	-10.2049
헌	-10.2049
랫	-10.2053
ᅥ	-10.2053
z	-10.2053
▁아닙니다	-10.2053
찔	-10.2053
▁제임스	-10.2053
▁sf	-10.2054
▁극장가서	-10.2055
▁척	-10.2061
▁분위기가	-10.2063
▁사고	-10.2065
▁ᄏᄏᄏᄏᄏᄏ	-10.2066
훈훈	-10.2072
▁하나같이	-10.2073
▁21	-10.2074
때매	-10.2077
큐	-10.2077
▁기대이상	-10.2078
여주	-10.2087
있습니다	-10.2088
▁답답하고	-10.2094
19	-10.2094
같고	-10.2094
▁비하면	-10.2099
▁잼없	-10.2108
▁D	-10.211
▁에로영화	-10.211
찾	-10.2112
덜	-10.2112
▁집에	-10.2116
▁지나도	-10.2117
▁뭐하나	-10.2118
▁감정이	-10.2118
▁죽을	-10.2121
쓰레기영화	-10.2121
▁수준의	-10.2125
▁술	-10.2134
▁뛰어나	-10.2141
▁다운	-10.2142
▁출연한	-10.215
장르	-10.2151
▁쩝	-10.2157
엽	-10.2161
▁영상이	-10.2161
U	-10.2164
▁블록버스터	-10.2164
▁소소한	-10.2164
▁후속작	-10.2164
지않아	-10.2165
▁문제가	-10.2165
▁잔혹	-10.2165
▁감정이입	-10.2166
▁싸우는	-10.2166
▁그저그런	-10.2169
▁라고	-10.2171
▁개연성도	-10.2171
▁남자주인공	-10.2172
▁또다른	-10.2175
겼	-10.2175
▁이따위	-10.2176
▁성격	-10.2177
▁부실	-10.2184
▁외국	-10.2185
▁싶을	-10.2187
▁듣고	-10.219
▁아역	-10.219
영화인데	-10.2192
▁엉성하고	-10.2192
▁맡	-10.2192
야겠다	-10.2192
▁가정	-10.2194
이름	-10.2199
▁낙	-10.2202
놈이	-10.2212
▁기준	-10.2213
▁끝났	-10.2217
쓰고	-10.2217
▁여운을	-10.2218
▁예쁘고	-10.222
▁결정	-10.2223
절대	-10.2226
▁재미없었다	-10.2227
▁니들	-10.2229
본사람	-10.2233
커플	-10.2235
▁연출과	-10.2243
▁죽인	-10.2245
▁추리	-10.2251
▁정말이지	-10.2268
▁거기에	-10.2276
▁울컥	-10.2277
생각이	-10.2278
▁충실	-10.2279
▁결코	-10.228
▁어쩜	-10.228
▁낚였다	-10.2282
받아	-10.2287
▁왔	-10.2291
▁연극	-10.2293
대단	-10.2293
▁오래된	-10.2294
▁열연	-10.2297
▁남은	-10.2297
였으면	-10.2302
▁낮네	-10.2306
▁막장드라마	-10.2312
▁슬퍼	-10.2314
▁촌	-10.232
햇다	-10.2325
되었다	-10.2326
덕에	-10.2328
끼리	-10.2333
브라	-10.2343
관객	-10.2345
영이	-10.2346
▁p	-10.2348
▁폴	-10.2348
헐	-10.235
▁낮아	-10.2353
▁알려	-10.2355
쓰는	-10.2355
▁볼게	-10.2364
않다	-10.2365
보니까	-10.2366
마냥	-10.2367
▁싸움	-10.2372
▁매력을	-10.2373
▁가면	-10.2385
▁남자들	-10.2394
▁좋겠	-10.2395
▁감각	-10.2396
▁데리고	-10.2396
▁적당히	-10.2397
▁의미가	-10.2403
▁만남	-10.2407
▁오빠	-10.2415
▁잼나게	-10.242
▁가족영화	-10.2422
▁길게	-10.2423
▁예쁘	-10.2426
▁전설	-10.2427
▁아니야	-10.2433
기전에	-10.2435
..........	-10.2437
후에	-10.2439
아빠	-10.2445
▁먼가	-10.2449
▁L	-10.2453
▁그당시	-10.2459
▁반전은	-10.246
비디오	-10.2465
▁노래가	-10.2468
▁식상한	-10.2468
<	-10.2469
▁공포물	-10.2471
▁가슴을	-10.2471
야한다	-10.2473
찡	-10.2475
두고	-10.2481
왓	-10.2483
부러	-10.2486
▁다운받아	-10.2486
▁많은데	-10.2492
ut	-10.2493
객	-10.2498
▁결말을	-10.25
재미없음	-10.25
혼자	-10.2502
뽀	-10.2505
컴	-10.2505
▁잘봤어요	-10.2505
룩	-10.2505
▁탄생	-10.2506
없는영화	-10.2509
▁풍자	-10.2511
▁흔들	-10.2512
▁승리	-10.2516
ᄋᄋ	-10.2516
믿	-10.2518
▁매력적	-10.2521
▁두고	-10.2523
주고싶다	-10.2525
▁집중해서	-10.2532
▁요리	-10.2548
같네	-10.255
뻔한	-10.2551
년작	-10.2553
▁방식	-10.2555
▁보려	-10.2558
▁아래	-10.2559
▁만한	-10.256
점이상	-10.2563
게임	-10.2565
다음	-10.2567
▁봅니다	-10.2572
▁죽이고	-10.2578
벗	-10.2584
▁특이	-10.2585
▁찾아보	-10.2588
갑니다	-10.259
▁현실적이	-10.2592
▁구성이	-10.2593
뇌	-10.2597
▁마이	-10.2604
▁봤네	-10.2605
▁의문	-10.2612
렵	-10.2617
▁애들은	-10.2621
찐	-10.2621
▁아류작	-10.2621
▁즐거웠	-10.2621
▁다양한	-10.2622
었을	-10.2624
▁아무런	-10.2625
▁그만큼	-10.2628
▁살다살다	-10.2628
▁만들었는지	-10.263
지루함	-10.2633
했다면	-10.2633
▁허술	-10.2637
▁떨	-10.2639
굿굿	-10.2639
▁엿	-10.264
bb	-10.2647
었네요	-10.2651
▁살면서	-10.2651
턴	-10.2655
▁수많은	-10.2655
▁주인공은	-10.2658
번은	-10.2659
▁안볼	-10.2663
▁생각했는데	-10.2666
▁만들수	-10.2668
▁잘만들었	-10.2669
▁기독교	-10.2671
▁내용인지	-10.2678
못해	-10.2688
본영화	-10.2693
▁낮게	-10.2696
▁여러분	-10.2696
▁변화	-10.2698
▁대단하	-10.2702
보셈	-10.2707
아저씨	-10.2711
씬이	-10.2717
▁헬	-10.2717
▁마지막장면	-10.2719
▁사상	-10.2719
▁멍	-10.2723
후회	-10.2731
는거야	-10.2736
▁로버트	-10.2739
▁집착	-10.274
▁바랍니다	-10.274
조금	-10.2742
♡♡	-10.2744
▁남네요	-10.2744
▁담배	-10.2745
▁돈을	-10.2746
둥이	-10.2749
법한	-10.2751
갔는데	-10.2754
여행	-10.2755
했었	-10.2758
겠죠	-10.2759
▁볼수있는	-10.2763
▁신파	-10.2772
▁조카	-10.2775
받았	-10.2775
기법	-10.2779
▁응	-10.2783
▁빼면	-10.2785
하는영화	-10.2786
▁느껴지	-10.2788
▁놀랍다	-10.2796
▁살린	-10.2798
영화입니다	-10.2806
80	-10.2807
▁밋밋	-10.2807
▁한국에서	-10.2819
▁냉	-10.2819
▁f	-10.2821
▁몰랐다	-10.2823
거죠	-10.2828
널	-10.283
갓	-10.2834
▁G	-10.2837
▁핵노잼	-10.2838
▁내가본	-10.2838
▁보기에는	-10.2841
▁뭘까	-10.2843
▁손에	-10.2845
▁책을	-10.2847
둥	-10.2848
▁잘하는	-10.2849
수없는	-10.2852
할만한	-10.2852
평가	-10.2853
보기싫	-10.2853
해야할	-10.2858
엑	-10.2858
핑	-10.2858
벼	-10.2858
▁플롯	-10.2858
▁특수효과	-10.2858
▁샘	-10.2858
▁니콜	-10.2859
▁앞뒤	-10.2859
▁짧은	-10.286
▁놀라운	-10.2865
▁궁	-10.2867
▁치고	-10.2874
▁생긴	-10.2877
▁재미있습니다	-10.2882
완성	-10.2883
▁넌	-10.2884
▁운명	-10.2888
▁원작에	-10.289
▁궁금하다	-10.289
있었다	-10.2892
▁별로임	-10.2897
▁잼잇	-10.2897
▁북	-10.2898
▁등장인물	-10.2899
▁주기도	-10.2899
▁솔직	-10.2902
스크	-10.2903
▁코미디영화	-10.2904
이었습니다	-10.2904
았어요	-10.2911
점대는	-10.2911
▁199	-10.2915
12	-10.292
▁그자체	-10.2921
▁인도	-10.2922
▁형편없	-10.2931
것만으로도	-10.2932
배우가	-10.2932
▁신비	-10.2933
▁생활	-10.2936
▁안습	-10.2936
▁망친	-10.2943
것같은	-10.2955
▁인상적	-10.2956
▁과정	-10.2957
▁새로	-10.2959
▁이상하게	-10.296
▁예쁘다	-10.296
필요없	-10.2965
▁보기에	-10.2969
▁자리	-10.2973
▁ᄀ	-10.2975
찮	-10.2977
▁거리	-10.2978
핀	-10.2978
긋	-10.2978
▁러시아	-10.2978
▁교과서	-10.2978
▁끔찍	-10.2978
▁심지어	-10.2979
▁위험	-10.2981
부분은	-10.2985
▁여자친구	-10.2987
▁좀비영화	-10.2987
▁짜증만	-10.2989
▁해라	-10.2994
▁좋겠네요	-10.2995
쩔	-10.2996
▁낮지	-10.2998
▁주제를	-10.2999
▁꽤나	-10.3003
!!!!!!!!!!!!!!!!	-10.3004
▁재미도없고	-10.3007
▁아쉽지만	-10.3009
어여	-10.3014
▁부분도	-10.3017
라는걸	-10.3023
듣	-10.3024
▁않아서	-10.3025
▁안맞는	-10.3026
▁마지막까지	-10.3027
▁잠이	-10.3029
▁교훈을	-10.3032
▁여주가	-10.3035
뿐이다	-10.3037
쳐서	-10.3038
▁와닿	-10.3051
▁때려	-10.3055
이뻐	-10.3056
▁몽	-10.3059
거같음	-10.3063
▁소설을	-10.3068
▁연기력은	-10.3069
든지	-10.3069
▁잘하고	-10.3075
F	-10.3078
긴장감	-10.3081
▁몰라	-10.3081
▁불쌍하다	-10.3081
흠	-10.3083
▁보아	-10.3087
촌	-10.3087
좋았다	-10.3091
픽	-10.3096
▁최고로	-10.3098
재밌어	-10.3098
좌	-10.3099
뽕	-10.31
관람	-10.31
▁뭐니	-10.31
▁가벼운	-10.31
▁반드시	-10.31
▁첫사랑	-10.3106
▁봤을까	-10.3111
▁어느정도	-10.3111
옆	-10.3115
▁무료	-10.3116
▁캬	-10.3118
▁잼있어요	-10.3119
▁순수함	-10.312
▁어처구니	-10.3131
▁있다니	-10.3134
▁호구	-10.3138
▁욕심	-10.3138
▁반대	-10.314
▁폐	-10.3144
▁정작	-10.3155
▁안본	-10.3156
▁60	-10.3156
▁확인	-10.3157
▁잼나	-10.3172
보고싶다	-10.3173
어지는	-10.3176
▁목적	-10.3178
▁휘	-10.318
▁어울리는	-10.318
▁떨어지고	-10.3184
ᄏᄏᄏᄏᄏᄏᄏᄏᄏᄏ	-10.3187
지말자	-10.3188
깝	-10.319
이든	-10.3192
▁넘게	-10.3198
▁처음에는	-10.3198
긴하지만	-10.3198
▁없으면	-10.32
▁일반	-10.3203
▁내용과	-10.3205
궁	-10.3211
팀	-10.3211
당시	-10.3212
화이팅	-10.3212
졸작	-10.3221
▁자체는	-10.3223
▁역사를	-10.3223
▁임팩트	-10.3224
▁주윤발	-10.3224
퓨	-10.3224
▁인내심	-10.3224
▁짜집기	-10.3224
▁어설프고	-10.3225
것처럼	-10.3225
스토리도	-10.3225
신분	-10.3227
▁시청률이	-10.3229
싫어	-10.3233
▁여자주인공	-10.3234
▁한숨	-10.3234
▁태어나서	-10.3234
▁삶이	-10.3235
▁크리스	-10.3235
▁그야말로	-10.3236
▁신선하	-10.3238
스럽지	-10.3242
▁말하고자	-10.3243
▁따분	-10.3245
▁약간의	-10.3249
▁조절	-10.3249
▁아름답게	-10.3252
▁책임	-10.3256
또한	-10.3263
▁버리	-10.3265
▁불편한	-10.3271
▁여전	-10.3273
▁짜증나서	-10.3277
▁그립다	-10.3286
▁무리	-10.3288
▁당신은	-10.3294
▁매일	-10.3294
▁줄수	-10.3301
▁포스터가	-10.3305
씨는	-10.3308
▁모른다	-10.3311
보는게	-10.3311
라지만	-10.3312
▁소년	-10.3314
▁볼때	-10.3317
▁다시보니	-10.3319
맥	-10.3322
삶	-10.3334
▁맞지	-10.3335
▁최고임	-10.3338
▁한편의	-10.3341
▁러닝타임	-10.3342
빌	-10.3342
방식	-10.3343
▁포스	-10.3343
▁아닐	-10.3346
▁언니	-10.3347
^-^	-10.3349
탱	-10.3349
▁쓸데없이	-10.3349
▁장국영	-10.3349
▁유일한	-10.335
할것	-10.3351
만드네	-10.3352
▁당연히	-10.3353
▁1,2	-10.3353
시오	-10.3358
▁일부러	-10.3358
▁첨엔	-10.336
▁나름대로	-10.3364
▁빵	-10.3365
▁친구가	-10.3366
▁이딴걸	-10.3367
류의	-10.3372
▁아까운영화	-10.3374
떨	-10.3376
▁이야기는	-10.3376
재미도	-10.3383
거같	-10.3386
같아서	-10.3387
▁생각으로	-10.3391
▁강렬한	-10.3393
▁심장	-10.3393
▁명작을	-10.3395
▁업	-10.3397
▁명장면	-10.3401
사를	-10.3401
웨이	-10.3402
로드	-10.3405
▁배신	-10.3407
▁타고	-10.3408
달아	-10.3409
▁폐지	-10.3409
사라	-10.341
▁상업	-10.3412
▁시리즈는	-10.3415
▁중요	-10.3416
같은영화	-10.3422
아무튼	-10.3423
▁아름답	-10.3426
▁가져	-10.3427
▁했으면	-10.3427
될듯	-10.3429
▁선물	-10.3431
▁보다는	-10.3432
▁엘	-10.3432
이러	-10.3436
▁영화화	-10.344
▁멋졌	-10.3446
▁엉망이	-10.3446
었나	-10.345
는구나	-10.3454
느껴	-10.3464
굳	-10.3468
추억	-10.3471
꾼	-10.3472
보여주	-10.3474
▁소재도	-10.3474
▁죽었	-10.3475
▁해리포터	-10.3475
▁배트맨	-10.3475
▁설득력	-10.3475
▁심형래	-10.3475
▁유일하게	-10.3476
as	-10.3477
▁하나로	-10.3478
포스터	-10.3479
▁희망을	-10.3483
▁근래	-10.3484
▁로코	-10.3484
▁때문	-10.3497
언제	-10.3499
▁어른이	-10.3503
▁기회	-10.3504
▁귀여워	-10.3505
▁어렵다	-10.3507
▁엔딩이	-10.3522
▁모든걸	-10.3524
▁레이	-10.3526
▁피해	-10.3529
제로	-10.3535
▁연기자	-10.3537
▁보던	-10.3538
듯하다	-10.3544
▁만든거	-10.3549
▁바다	-10.3551
▁재미없어서	-10.3551
주기	-10.3551
▁수작이다	-10.3553
▁음식	-10.3561
레스	-10.3563
못하는	-10.3569
려나	-10.357
▁무엇	-10.357
▁수입	-10.3571
▁가족이	-10.3575
▁한번도	-10.3581
▁영화인지	-10.3583
본영화중	-10.3586
밝	-10.3599
▁틀어	-10.3601
딘	-10.3603
▁dvd	-10.3604
▁뱀파이어	-10.3604
땀	-10.3604
ᄁ	-10.3604
갠적으로	-10.3606
▁웃으면서	-10.3607
시나리오	-10.3607
걍	-10.3607
▁배경음악	-10.3608
▁괜찮았다	-10.3608
▁할아버지	-10.3609
le	-10.3615
였나	-10.3617
곳에	-10.3618
▁따뜻하고	-10.362
역사	-10.3623
▁꼬마	-10.3624
▁나에겐	-10.3629
낫	-10.3632
▁케이블에서	-10.3633
보인다	-10.3637
▁쓰고	-10.3638
▁쉬	-10.3638
▁많아서	-10.3642
에대해	-10.3643
▁영상과	-10.3643
▁기억나는	-10.3644
▁m	-10.3645
▁새벽에	-10.365
테러	-10.365
맞는	-10.3651
▁보다니	-10.3656
▁많은걸	-10.366
▁가수	-10.3661
저리	-10.3661
알아	-10.3665
능력	-10.367
▁남았	-10.3673
▁조선	-10.3677
▁상대	-10.3682
육	-10.3685
먹은	-10.3686
미국	-10.3686
▁나랑	-10.3691
▁이상하고	-10.3693
▁오락영화	-10.3695
씀	-10.3698
높은	-10.3699
오브	-10.37
▁느낌의	-10.37
▁흐르는	-10.3704
▁혹시	-10.3704
▁강한	-10.371
▁배우들은	-10.3716
100	-10.3721
▁재미로	-10.3721
좋은영화	-10.3722
ᅮᅲ	-10.3726
뗄	-10.3733
셋	-10.3733
깃	-10.3733
▁이소룡	-10.3733
▁홍상수	-10.3733
▁of	-10.3734
▁격	-10.3734
▁내생에	-10.3734
▁빵빵	-10.3734
▁착각	-10.3735
아버지	-10.3736
▁장면도	-10.3736
꿈	-10.3742
▁본게	-10.3742
톤	-10.3748
▁울리는	-10.375
있지	-10.375
▁이런건	-10.375
웃김	-10.375
▁동양	-10.3753
▁처음에	-10.3754
받을	-10.3755
할뿐	-10.3755
연기는	-10.3755
보긴	-10.3767
▁동심	-10.3768
멜로	-10.377
주고싶	-10.3771
었네	-10.3772
지훈	-10.3777
▁저급	-10.3786
▁생각할	-10.3788
▁봐야하는	-10.3791
뭔	-10.3807
▁밀려	-10.381
▁슬펐	-10.3811
▁재밌어서	-10.3813
▁곧	-10.3815
약한	-10.3815
▁짜증이	-10.3816
▁이해할수	-10.3819
▁포인트	-10.382
▁감동은	-10.3824
▁어디에	-10.3825
▁난해하	-10.3825
이었던	-10.3833
▁보이지	-10.3833
재미있게	-10.3839
▁살아있	-10.3839
▁한국의	-10.3842
못보겠	-10.3845
배우들이	-10.3846
먹어	-10.385
없네요	-10.3858
조연	-10.3859
치고는	-10.386
▁ᄍᄍᄍ	-10.3863
▁아깝고	-10.3864
▁고등학교	-10.3865
▁대통령	-10.3865
▁조니뎁	-10.3865
럭	-10.3865
▁할리우드	-10.3865
▁부끄러	-10.3865
▁제이슨	-10.3865
▁영환데	-10.3866
▁맞춰	-10.3867
▁돋보이는	-10.3868
▁어째	-10.3872
몸	-10.3874
▁이해를	-10.3875
캐스팅	-10.3875
▁두번째	-10.3876
분위기	-10.3877
▁ᄏᄏᄏᄏᄏᄏᄏ	-10.3877
▁받은	-10.3879
▁시간아깝다	-10.388
▁잘못된	-10.3883
▁여자의	-10.3884
목소리	-10.3885
느끼	-10.3886
▁있네	-10.3887
▁현실과	-10.3892
!!!!!!	-10.3893
아프	-10.3893
놀이	-10.3895
▁독일	-10.3896
▁놓고	-10.3896
▁살리	-10.3898
▁아쉬움이	-10.3898
드립니다	-10.3899
▁^	-10.3899
▁우연	-10.3901
찾기	-10.3902
▁후에	-10.3905
▁없었음	-10.3906
▁난잡	-10.3909
40	-10.3919
▁가족들	-10.3923
일듯	-10.3924
보시길	-10.3925
▁싶어요	-10.3925
▁섬	-10.3934
▁오글거리	-10.3938
▁영화인가	-10.394
▁아니지	-10.3943
▁쩔	-10.3943
▁주제가	-10.3945
▁잘만들	-10.3949
▁초딩때	-10.3949
▁장면들	-10.396
었는지	-10.3965
어색	-10.3974
............	-10.3977
▁정보	-10.3978
▁삼류영화	-10.398
▁마음으로	-10.3981
았지만	-10.3983
▁들고	-10.3985
에게는	-10.3987
▁연인	-10.3989
▁실화를	-10.3993
쩜	-10.3994
젊	-10.3996
짤	-10.3998
젖	-10.3998
▁you	-10.3998
▁됩니다	-10.3998
▁숨겨진	-10.3998
▁늑대	-10.3999
▁과학	-10.4004
▁언제봐도	-10.4005
▁여러번	-10.4006
▁다섯	-10.4009
▁재능	-10.4012
▁단순히	-10.4012
▁사라지	-10.4013
장면은	-10.4014
▁의사	-10.4016
▁하길래	-10.4017
춤	-10.4018
메이	-10.4018
...........	-10.402
▁재미있을	-10.4021
▁공감할	-10.4022
▁마약	-10.4022
▁혹시나	-10.403
▁충분	-10.4033
하는건지	-10.4038
▁갔다	-10.404
▁톰	-10.4045
극장에서	-10.4046
더라면	-10.4051
▁클레멘타인	-10.4055
▁어색하고	-10.4063
▁부부	-10.4067
▁발상	-10.4071
▁실수	-10.4071
▁안간다	-10.4073
틴	-10.4085
▁검색	-10.4087
▁같지	-10.4089
▁제목만	-10.409
15	-10.4095
▁인생에	-10.4096
재밌는	-10.4107
▁장면을	-10.4108
▁머리가	-10.4109
려다가	-10.4114
데요	-10.4115
아까운	-10.4119
낭	-10.4125
▁진수	-10.4127
▁정상	-10.4127
납	-10.4131
폼	-10.4132
눌	-10.4133
템	-10.4133
곱	-10.4133
밴	-10.4133
뎅	-10.4133
부끄럽	-10.4133
▁깜짝	-10.4133
▁희대의	-10.4134
▁박진감	-10.4134
▁=	-10.4134
▁사운드	-10.4134
▁익숙	-10.4134
▁떨어짐	-10.4134
▁빠른	-10.4135
▁처절	-10.4138
▁시간만	-10.4138
▁별로고	-10.4139
▁서양	-10.414
▁하다가	-10.4142
하니까	-10.4147
▁짜증남	-10.4149
▁개노잼	-10.4155
▁F	-10.4156
▁넘치	-10.4157
칼	-10.4158
으려고	-10.416
같지	-10.4161
엄청	-10.4162
▁좋네	-10.4166
▁엄마가	-10.4167
▁모르겠네요	-10.417
▁아까웠다	-10.4172
차이	-10.418
▁예능	-10.4186
▁다르게	-10.4188
▁불쌍한	-10.4194
▁터미네이터	-10.4196
▁아냐	-10.4197
▁지겹다	-10.4199
ᄍ	-10.4207
▁멋지고	-10.4207
▁중심	-10.4207
▁하는게	-10.4214
▁X	-10.4216
▁만들기	-10.4218
바라	-10.422
▁하아	-10.4225
▁사용	-10.4228
▁세상이	-10.4231
기도하고	-10.4235
보소	-10.4238
갈때	-10.4242
올라	-10.4246
른다	-10.4248
▁안봐도	-10.4251
▁거장	-10.4251
섹	-10.4256
▁울었	-10.4259
▁나네요	-10.4263
▁조잡	-10.4268
▁이토록	-10.427
▁이뻐서	-10.4271
▁줍니다	-10.4272
▁뭐하자는	-10.4272
▁실험	-10.4273
▁잤다	-10.4275
▁응원	-10.4275
분만에	-10.4276
♥♥♥♥	-10.4277
▁상영관	-10.4277
줄알았는데	-10.4279
▁디워	-10.4283
▁매니아	-10.4285
en	-10.4287
▁최고봉	-10.4287
▁괜찮음	-10.4293
▁봐도봐도	-10.4294
▁멋있는	-10.4298
▁봤다면	-10.4307
▁아니라고	-10.431
▁높아서	-10.431
▁그것도	-10.4311
▁없나요	-10.4313
▁그동안	-10.4313
내용은	-10.4317
▁깔	-10.4321
▁주연배우	-10.4325
▁논리	-10.4336
구리	-10.4341
모르고	-10.4343
▁있다고	-10.4345
▁반전을	-10.4346
제대로	-10.4347
스러웠	-10.4348
▁달려	-10.4349
▁느꼈	-10.4353
▁앞에	-10.4358
말이필요없	-10.436
표정	-10.4361
우스	-10.4361
▁알겠다	-10.4362
▁사투리	-10.4362
▁점수는	-10.4366
차별	-10.4377
▁슈	-10.4382
▁아이들과	-10.4383
▁내게	-10.4388
쾌	-10.439
스카	-10.4395
하시길	-10.4398
▁이런영화는	-10.4401
여운이	-10.4402
할수가	-10.4403
▁감독을	-10.4405
뜬	-10.4409
ᄎ	-10.4409
팍	-10.4409
쿵	-10.4409
▁네티즌	-10.4409
앨	-10.4409
▁제니퍼	-10.4409
▁도무지	-10.441
▁쉽지	-10.4413
▁판단	-10.4418
▁내용전개	-10.4426
곳에서	-10.4431
▁맛이	-10.4434
못하고	-10.4441
▁궁금해서	-10.4443
▁그럴듯	-10.4444
▁집중이	-10.4448
▁내일	-10.4453
어용	-10.4458
▁정신병자	-10.4458
▁이루	-10.4462
물로	-10.4464
▁보라	-10.447
모자	-10.4472
하지마	-10.4473
애들이	-10.4475
려다	-10.4475
기에는	-10.4477
준호	-10.4478
▁어디가	-10.4481
하거나	-10.4486
▁알겠	-10.4489
하지말고	-10.4496
있지만	-10.4506
▁잡아	-10.4514
뭐냐	-10.4522
열받	-10.4528
▁얼굴이	-10.4529
▁끝에	-10.453
▁현실감	-10.4538
al	-10.4539
것보다	-10.4545
낀	-10.4547
하기에	-10.4548
삭	-10.455
▁왤케	-10.455
닷	-10.455
▁아놀드	-10.455
▁흑백	-10.455
▁하정우	-10.455
▁폭풍	-10.4553
▁여주인공이	-10.4554
▁재개봉	-10.4554
▁메이	-10.4555
▁루즈	-10.4557
▁만화책	-10.4557
분을	-10.4557
▁떼	-10.4557
▁폭발	-10.4558
▁배우도	-10.4558
▁담겨	-10.4559
▁오브	-10.456
▁2000	-10.456
▁거북	-10.456
▁재미없을	-10.4563
▁공짜로	-10.4565
▁괜찮았는데	-10.4567
▁짜증나고	-10.457
트로	-10.4571
▁없게	-10.4572
▁반담	-10.4572
▁하품	-10.4573
나왓	-10.4578
불쌍	-10.4582
▁하지원	-10.4583
▁배경이	-10.4585
꽃	-10.4585
▁ᄏᄏᄏᄏᄏᄏᄏᄏ	-10.4586
어이없	-10.4591
앤	-10.4591
탑	-10.4593
▁잊고	-10.4594
▁갑니다	-10.4596
드립	-10.4598
▁뭣	-10.4599
▁인형	-10.4599
▁배우는	-10.4601
웃겨	-10.4602
▁공간	-10.4608
▁쭉	-10.461
아무리	-10.461
멋있	-10.4611
때까지	-10.4614
▁최고의영화	-10.4615
▁기타	-10.462
▁말자	-10.4624
류영화	-10.4625
▁사랑해	-10.4626
▁불안	-10.4627
▁찾는	-10.4629
▁이드라마	-10.4632
하군	-10.4646
▁사람도	-10.4651
▁부정	-10.4652
▁겁	-10.4666
만큼이나	-10.4667
▁박수	-10.4668
▁작품입니다	-10.4679
▁설정이	-10.4682
▁보게된	-10.4685
▁대신	-10.4686
흡	-10.4686
있는영화	-10.4686
▁to	-10.4688
깍	-10.4691
▁나레이션	-10.4693
▁소중함을	-10.4693
▁쓸데없는	-10.4693
▁컨셉	-10.4693
덩어리	-10.4693
▁꿈꾸	-10.4695
▁극복	-10.47
▁환경	-10.47
▁적어도	-10.4701
▁무엇인가	-10.4703
▁이루어	-10.4704
▁빅	-10.4708
▁으리	-10.4711
▁유치해	-10.4711
키드	-10.4715
▁벤	-10.4717
▁어거지	-10.4718
상영	-10.4719
▁잔잔하게	-10.472
씁쓸	-10.4726
▁탈출	-10.4728
▁스릴도	-10.4728
▁평소	-10.4729
햇는데	-10.4731
▁죽고	-10.4732
▁남기	-10.4732
▁재미있어	-10.4739
휘	-10.4741
포인트	-10.4742
개인적으로	-10.4743
뭘	-10.4743
범죄	-10.4747
▁이름이	-10.4753
▁마지막회	-10.4754
비슷	-10.4757
▁기대없이	-10.4757
▁여자애	-10.4761
소름	-10.4763
▁케릭터	-10.4765
▁김치	-10.4767
앞으로	-10.4771
▁결론은	-10.4772
▁아우	-10.4773
▁가득한	-10.4775
▁미스	-10.4778
▁없냐	-10.4782
글자	-10.4786
▁영상미가	-10.4787
발랄	-10.4795
맞고	-10.4796
▁정신없	-10.4796
▁연출은	-10.4802
엇는데	-10.4808
▁재밋어요	-10.4813
▁뒤에	-10.4815
▁귀엽다	-10.4816
발연기	-10.4817
▁테러	-10.4818
▁가능한	-10.4823
▁사랑한다	-10.4826
▁넣어	-10.4828
^^*	-10.4834
갱	-10.4838
뚝	-10.4838
랭	-10.4838
▁오프닝	-10.4838
뻥	-10.4838
웟	-10.4838
▁리얼리티	-10.4838
랩	-10.4838
▁뭥미	-10.4838
▁걱정	-10.4838
▁달콤	-10.4839
▁끌고	-10.484
▁이상해	-10.4841
▁평균	-10.4841
▁명대사	-10.4842
▁각색	-10.4842
▁얘	-10.4843
▁만약	-10.4844
500	-10.4845
있던	-10.4846
▁부럽	-10.4846
▁돈내고	-10.4846
▁무겁	-10.4847
▁빛을	-10.4847
▁믿고보는	-10.4847
▁따위	-10.4851
~~!!	-10.4852
▁담은	-10.4852
▁같고	-10.4853
자마자	-10.4855
▁오랫만에	-10.4855
존나	-10.4858
▁부담	-10.486
▁유행	-10.4863
▁영화라니	-10.4864
세여	-10.4864
▁유쾌하게	-10.4865
▁뻔하	-10.4871
▁손발	-10.4871
▁진부	-10.4873
-_-;	-10.4876
▁않았지만	-10.4888
▁관련	-10.4893
▁본건데	-10.4896
▁히어로	-10.49
~~^^	-10.4906
낮은	-10.491
▁우뢰매	-10.4911
▁시대에	-10.4914
▁소화	-10.4914
▁놀랍	-10.4915
▁볼만했다	-10.492
▁아들이	-10.492
이딴	-10.4921
기억이	-10.4923
▁유덕화	-10.4923
할줄	-10.4924
▁좋을듯	-10.4925
자들의	-10.4933
▁세번	-10.4933
▁허술한	-10.4934
▁기가	-10.4935
▁강렬	-10.4936
외로	-10.4938
느낌이	-10.494
▁전쟁의	-10.4941
등록	-10.4943
늙	-10.4944
렬	-10.4945
▁따라가	-10.4946
▁만난	-10.4946
▁읽어	-10.4951
멜	-10.4951
점주	-10.4961
▁어울리지	-10.4961
▁푸	-10.4962
▁정도면	-10.4966
▁의상	-10.4972
▁여자는	-10.4974
▁난리	-10.4975
감독은	-10.4976
빠진	-10.4976
그러나	-10.4977
▁눈물나	-10.4977
소녀	-10.4979
앉	-10.498
맘	-10.4983
▁묻어	-10.4983
▁늦게	-10.4985
▁송강호	-10.4985
▁인터넷	-10.4985
껀	-10.4985
▁액션신	-10.4986
▁동시에	-10.4986
▁보시면	-10.4988
▁서울	-10.4996
▁보는거	-10.4997
▁유럽	-10.4998
자들이	-10.4998
▁자극적인	-10.4999
▁거품	-10.5003
▁파괴	-10.5004
▁살인마	-10.5005
▁먹는	-10.5006
래도	-10.5007
▁포스터에	-10.5008
▁사실을	-10.5014
▁보았는데	-10.5014
▁갓	-10.5015
▁적당한	-10.5018
▁녹아	-10.5022
▁평화	-10.5024
▁절정	-10.5025
하자면	-10.5028
▁원조	-10.5031
특별	-10.5032
▁좋다고	-10.5033
▁쫓	-10.5036
▁아깝네	-10.504
▁잼있음	-10.5041
▁사랑해요	-10.5042
▁아니었다	-10.5043
▁일본은	-10.5045
코믹	-10.5046
▁황당한	-10.5049
▁만들어서	-10.505
바람	-10.5058
그럼	-10.506
▁분들이	-10.5065
▁가고	-10.5069
안돼	-10.5071
봣다	-10.5073
▁자동차	-10.5078
▁갖다	-10.5081
놨네	-10.5084
줄알았	-10.5086
▁답이	-10.5088
▁웃었	-10.5088
▁웃을	-10.5089
▁즐	-10.5095
▁인간은	-10.5098
므	-10.51
▁자아	-10.5104
▁안될	-10.5112
▁받고	-10.5114
▁재미없다고	-10.5122
힘들	-10.5123
▁최소	-10.5125
이예요	-10.5125
▁육	-10.5125
광고	-10.5128
벅	-10.5134
셉	-10.5134
빗	-10.5134
▁명불허전	-10.5134
▁스티븐	-10.5134
▁짐캐리	-10.5134
걷	-10.5134
똘	-10.5134
릇	-10.5134
켄	-10.5134
▁가까운	-10.5134
▁내생애	-10.5134
▁우려먹	-10.5134
보느니	-10.5135
마누라	-10.5135
▁축구	-10.5137
스텝	-10.5137
아이들	-10.5137
▁역량	-10.5138
▁어쩌면	-10.5138
▁따뜻해	-10.5139
▁재미있는데	-10.514
▁찍고	-10.5141
▁전반적으로	-10.5141
▁믿기지	-10.5143
낚	-10.5148
분동안	-10.515
것같은데	-10.5152
▁목소리가	-10.5154
보고있어요	-10.5158
여운	-10.5168
할수있는	-10.517
▁스토리전개	-10.5172
▁시작부터	-10.5173
찾아	-10.5177
▁탄탄하고	-10.5178
▁놓치	-10.5178
▁답답함	-10.5178
▁이끌어	-10.5185
▁아깝네요	-10.5186
었을까	-10.5187
▁고어	-10.5188
▁오락	-10.5188
나름	-10.5189
▁일본인	-10.519
봐야지	-10.5194
▁한국판	-10.5197
볼수있	-10.52
아니고	-10.52
▁화나	-10.52
▁왜곡	-10.5202
섬	-10.5204
않음	-10.5204
▁의지	-10.5208
▁영화였음	-10.5208
새롭	-10.5213
노답	-10.5216
드만	-10.5226
es	-10.5227
쩐다	-10.5227
행복	-10.5228
어리	-10.5229
▁일부	-10.523
▁등장인물들	-10.5235
▁읽고	-10.5236
델	-10.5238
▁명연기	-10.5243
▁만들었나	-10.5246
▁포스터만	-10.5247
있어요	-10.525
▁무섭고	-10.5252
스토리가	-10.5262
같아	-10.5265
▁그립	-10.5265
였지	-10.527
자식	-10.5271
윈	-10.5274
▁알았네	-10.5276
나오네	-10.5279
썸	-10.5286
몫	-10.5286
▁아무생각없이	-10.5286
▁깡패	-10.5286
▁양아치	-10.5286
▁첩보	-10.5286
▁정우성	-10.5286
▁좋았을텐데	-10.5289
▁은근히	-10.5291
였을	-10.5297
▁소장	-10.5298
▁만들어낸	-10.5299
▁기존	-10.5304
오래	-10.5305
▁곰	-10.5308
▁이런류의	-10.5308
▁겨울	-10.5308
▁사람이라면	-10.5314
▁다시보고	-10.5316
편에서	-10.5322
▁생각난다	-10.5323
▁아파	-10.5325
▁친구랑	-10.5326
▁강간	-10.5326
▁액션과	-10.5327
▁한방	-10.5331
▁전개와	-10.5334
▁초등학교	-10.5336
▁자극적	-10.5338
▁꿀	-10.5339
▁싱	-10.5344
되요	-10.5346
▁생명	-10.535
▁그것이	-10.5351
▁시나리오가	-10.5352
그렇게	-10.5364
께요	-10.5366
▁본듯	-10.5369
th	-10.5372
재미없어	-10.5375
천원	-10.5379
미친	-10.538
▁지겹	-10.5382
▁불가능	-10.5389
▁느낌은	-10.5391
▁봐야지	-10.5392
▁되네요	-10.5393
잖아요	-10.5397
▁사람들에게	-10.5397
브리	-10.5399
▁표현할	-10.5408
▁:)	-10.5415
▁녹	-10.5417
▁싶었다	-10.5417
▁과장	-10.5422
아직도	-10.5428
▁이번에	-10.5438
꼈	-10.5439
쩌네	-10.5439
뭉	-10.544
▁누군지	-10.544
괜찬	-10.544
▁역겨운	-10.544
▁블랙코미디	-10.5441
해지고	-10.5441
▁헛웃음	-10.5441
▁민폐	-10.5441
▁왠만한	-10.5442
▁이것보단	-10.5445
처리	-10.5446
▁장난하냐	-10.5447
▁떨어져	-10.545
▁말아야	-10.5452
아니면	-10.5453
스토	-10.5453
▁담긴	-10.5454
▁작품이라	-10.5454
▁팀	-10.5455
▁여태	-10.5455
▁한국영화의	-10.5456
분들은	-10.546
▁그것을	-10.5463
하진	-10.5471
▁상관없	-10.5474
▁치유	-10.5476
▁영원한	-10.5478
▁최소한	-10.5483
꺼면	-10.5483
볼수	-10.5483
왔어요	-10.5485
▁나오는데	-10.5485
▁재난	-10.5486
▁잔잔하면서	-10.5497
▁좋지	-10.5503
스케	-10.5506
▁사랑합니다	-10.5507
▁반전에	-10.5509
50	-10.5514
▁매력에	-10.5516
▁영화예요	-10.5517
갖	-10.5519
평론가	-10.5523
▁찍는	-10.5525
▁아동	-10.5528
갈수록	-10.5531
▁스포츠	-10.5531
▁P	-10.5532
▁귀여움	-10.5532
셔야	-10.5536
사실	-10.554
▁비슷하	-10.5541
선수	-10.5542
▁진지한	-10.5544
무엇	-10.5544
달라	-10.5545
재미있어요	-10.5545
져요	-10.5549
자신	-10.5552
하하하	-10.5554
나쁜	-10.5558
▁예술영화	-10.5559
답게	-10.5561
▁각자	-10.5568
에비해	-10.5577
▁볼려고	-10.558
는거지	-10.5584
안된다	-10.5587
쯔	-10.5596
▁웰메이드	-10.5596
뱀	-10.5596
퀄	-10.5596
▁어두운	-10.5596
▁호기심	-10.5596
▁혐오	-10.5596
▁시대의	-10.5596
▁죄송	-10.5598
▁못보겠다	-10.5599
▁고뇌	-10.5599
▁극단적	-10.5599
숨	-10.56
▁즐길	-10.56
▁나무	-10.5601
▁상징	-10.5603
▁고독	-10.5603
▁이해불가	-10.5603
특집	-10.5603
▁강력	-10.5604
▁요새	-10.5606
▁동네	-10.5609
▁여친	-10.5609
▁개똥	-10.5611
▁억지감동	-10.5612
▁볼만합니다	-10.5612
스티	-10.5613
▁마니	-10.5615
▁땅	-10.5615
▁첨부터	-10.5615
▁100%	-10.562
▁한개도	-10.5621
▁옳	-10.5624
▁애매	-10.5625
▁괜찮아	-10.5625
▁적절한	-10.5626
▁교훈도	-10.5627
볼까	-10.5628
겠는데	-10.563
▁울면서	-10.5633
▁만들어주	-10.5634
▁허무한	-10.5637
▁알았음	-10.5641
▁아진짜	-10.5642
하실	-10.5643
▁시점	-10.5645
▁천국	-10.5645
▁잠시	-10.5646
▁씹	-10.5647
시간동안	-10.5651
▁뜬금없는	-10.5654
▁기적	-10.566
▁느낌이다	-10.5661
▁유치해서	-10.567
▁반영	-10.5672
앞	-10.5673
순위	-10.5674
▁형제	-10.5684
하시고	-10.5685
▁잔잔하	-10.5687
귀엽	-10.5689
TV	-10.5692
▁책으로	-10.5692
코메디	-10.5693
▁나이가	-10.5695
꿀	-10.5695
것같아	-10.5696
선택	-10.5696
있을까	-10.5698
보고싶어요	-10.5699
▁거기다	-10.5699
었지	-10.5706
▁아프다	-10.5714
연기를	-10.5718
▁찾아서	-10.5718
전혀	-10.5719
해주고	-10.5725
▁무섭지	-10.5726
편집	-10.5728
▁명작은	-10.5732
▁제목을	-10.5735
해놓고	-10.5736
아까워	-10.5739
▁덤	-10.5744
▁전화	-10.5745
▁다신	-10.5745
뷰	-10.5753
▁류승범	-10.5755
랴	-10.5755
▁제시카	-10.5755
▁배급사	-10.5755
▁이도저도	-10.5755
였네요	-10.5755
▁풋풋한	-10.5755
시대에	-10.5756
ᄏᄏᄏᄏᄏᄏᄏᄏᄏᄏᄏᄏ	-10.5758
▁빛나는	-10.5759
▁앉아	-10.576
▁심한	-10.5761
▁장애인	-10.5761
▁라스트	-10.5761
답니다	-10.5763
▁절망	-10.5763
▁전체적인	-10.5766
주시	-10.5768
보내	-10.5768
▁백인	-10.5778
보게되	-10.5778
ᄏᄏᄏᄏᄏᄏ	-10.578
▁마지막엔	-10.578
▁괜찮았음	-10.5781
먹었	-10.5783
▁남성	-10.5784
▁싶었던	-10.5784
▁안보는게	-10.5787
▁실감	-10.5789
▁널	-10.579
므로	-10.5791
ck	-10.5794
▁초반부	-10.5794
▁재밋음	-10.5794
▁생에	-10.58
▁부족함	-10.5802
으시	-10.5807
▁추천하고	-10.5812
▁만났	-10.5813
보신분들	-10.5819
▁별하나	-10.5824
▁매미	-10.5831
▁신인	-10.5831
없구	-10.5835
너무너무	-10.584
▁벗어나	-10.5845
▁아무도	-10.5846
맹	-10.5854
즐	-10.5855
sh	-10.5859
▁소재의	-10.586
같아요	-10.5862
▁내리	-10.5864
짱짱	-10.5864
▁진한	-10.5865
▁밤에	-10.5865
▁때리	-10.5869
소재와	-10.5869
▁않은데	-10.587
▁벗어	-10.5871
▁쩔어	-10.5872
▁정신병	-10.5873
▁배경으로	-10.5874
▁잘만들었다	-10.588
▁돼지	-10.5902
▁장면들이	-10.5905
확실	-10.5905
▁보고싶어	-10.5907
귀신	-10.5913
닫	-10.5914
▁가족의	-10.5916
렀	-10.5916
윌	-10.5916
닭	-10.5916
룰	-10.5916
▁놀랐다	-10.5916
뢰	-10.5916
뺏	-10.5916
쟈	-10.5916
▁빨갱이	-10.5916
▁드디어	-10.5916
▁엑소	-10.5916
▁러브라인	-10.5916
▁쓸쓸	-10.5917
복수	-10.5917
▁흥미로웠	-10.5917
▁짜릿	-10.5918
▁ᄃᄃᄃ	-10.5919
▁그림체	-10.5922
▁향수	-10.5922
▁담담	-10.5922
형제	-10.5931
지루하고	-10.5932
▁대표	-10.5932
▁탓	-10.5933
▁파리	-10.5935
▁아만다	-10.5935
에다가	-10.5936
▁놀란	-10.5938
▁모르지만	-10.594
▁있기	-10.5941
▁있었으면	-10.5942
▁다행이다	-10.5944
▁거지같은	-10.5945
당시엔	-10.5949
본적	-10.595
게만드는	-10.595
▁나을듯	-10.5953
다큐	-10.5956
▁편안	-10.5956
효과	-10.5959
me	-10.596
▁의도가	-10.5961
없나	-10.5967
보임	-10.5967
un	-10.597
▁소름돋	-10.5971
▁감독과	-10.5975
▁빠져서	-10.5978
▁단편	-10.5979
▁괜찮게	-10.5979
▁그렇지만	-10.598
▁ᄡ	-10.5985
▁여신	-10.5992
▁쩌는	-10.5994
->	-10.5996
터짐	-10.6003
▁그리워	-10.6003
▁보고나니	-10.6005
▁인류	-10.6015
곳이	-10.6015
작이라	-10.6017
좋네요	-10.6017
비하	-10.6018
▁빠지는	-10.6021
▁소개	-10.6024
살인	-10.6029
보네요	-10.6039
▁괜찮고	-10.6039
미스	-10.6051
역할	-10.6052
▁인상적인	-10.6054
▁따뜻	-10.6058
▁옆에	-10.606
물론	-10.6064
간에	-10.6067
▁자기가	-10.6067
측	-10.6077
칙	-10.6079
덩	-10.6079
ᅢ	-10.608
셧	-10.608
쉐	-10.608
욤	-10.608
▁브루스	-10.608
▁이병헌	-10.608
▁화장실	-10.608
▁삭제	-10.608
▁배꼽	-10.6082
맘에	-10.6086
꺼야	-10.6087
▁만들었을까	-10.6089
아아아	-10.609
▁재미있었습니다	-10.6092
▁드림	-10.6092
▁던져	-10.6092
▁졸았	-10.6093
▁안본다	-10.6099
애들은	-10.61
했을때	-10.6101
▁진지하게	-10.6102
▁말하려는	-10.6103
▁군인	-10.611
▁보았던	-10.6115
▁재밌었던	-10.6117
해져	-10.6118
▁깔끔한	-10.6119
▁드러	-10.6121
▁인디	-10.6122
▁되는데	-10.6124
▁것만	-10.6126
아닌가	-10.6136
▁말아먹	-10.6136
▁연출력이	-10.6139
있으면	-10.614
▁대사들	-10.6146
▁살았	-10.6147
▁와닿는	-10.6152
▁드네요	-10.6157
놈들은	-10.6159
당신	-10.6161
▁선사	-10.6168
▁공감도	-10.6169
뭐지	-10.6177
편까지	-10.6178
것같네요	-10.6181
▁유지	-10.6183
▁잘한다	-10.6183
▁작가의	-10.6185
▁끝나서	-10.6193
하나하나가	-10.6203
으신	-10.6208
외엔	-10.6209
▁인생은	-10.6218
▁ᄒᄃᄃ	-10.6219
해줘서	-10.6221
거라고	-10.6228
시키고	-10.623
재미있다	-10.6232
..............	-10.6233
▁시간에	-10.6233
90	-10.6238
▁빠졌	-10.6241
▁한다는	-10.6242
▁살다	-10.6242
랙	-10.6246
▁EBS	-10.6247
▁컴퓨터	-10.6247
홈	-10.6247
▁언젠가	-10.6247
헉	-10.6247
▁베드신	-10.6247
쯧쯧	-10.6247
▁하이틴	-10.6247
▁박보영	-10.6247
▁무거운	-10.6247
차승원	-10.6247
돈주고	-10.6249
▁낭만	-10.6249
▁비행기	-10.6249
▁생각해보게	-10.625
▁분량	-10.6252
포드	-10.6253
▁동영상	-10.6253
▁은근	-10.6256
밖	-10.626
▁도시	-10.626
합시다	-10.6262
▁개콘	-10.6264
▁미안하다	-10.6265
라인	-10.6268
▁가족애	-10.6269
▁극중	-10.6271
▁쪼	-10.6277
▁맞나	-10.628
▁신선함	-10.6288
▁앞서	-10.629
▁들어간	-10.6291
▁조금은	-10.6295
▁내돈	-10.6297
▁요소가	-10.6299
스릴	-10.6304
▁사랑하고	-10.6305
▁기대하지	-10.6305
장난치	-10.6305
▁생기	-10.6307
였다면	-10.6308
▁사랑스럽다	-10.6309
번을	-10.6319
후반	-10.6322
▁날아	-10.6325
▁보라고	-10.6327
더군	-10.6335
▁뜬금없이	-10.6338
▁뭐임	-10.6341
▁넘어가	-10.6343
주제	-10.6367
▁하나님	-10.6369
▁않았던	-10.6371
▁탄탄	-10.6372
년대에	-10.6382
▁드라마입니다	-10.639
결국	-10.6391
▁캐릭터들이	-10.6393
쟁	-10.6394
▁뭐하는	-10.6395
보고나서	-10.6401
광구	-10.6402
▁것들이	-10.6407
줄알았다	-10.6411
갠	-10.6413
겠어	-10.6415
줘야지	-10.6415
셜	-10.6416
▁흡입력	-10.6416
렐	-10.6416
뤄	-10.6416
쉴	-10.6416
▁신하균	-10.6416
。	-10.6416
듦	-10.6416
▁14	-10.6416
▁박중훈	-10.6416
툭	-10.6416
▁라이언	-10.6416
▁거부감	-10.6416
▁둘째치고	-10.6417
▁어설프다	-10.6418
▁예측	-10.6418
▁도둑	-10.6419
▁2012	-10.6419
▁잃은	-10.642
▁부탁	-10.642
▁고딩	-10.642
▁말그대로	-10.6423
여배우	-10.6424
▁깎	-10.6424
▁흘러가는	-10.6431
▁불쌍하	-10.6432
으러	-10.6435
▁영원	-10.6436
▁빼곤	-10.6444
▁나올때	-10.6445
▁답답하다	-10.6447
실력	-10.6449
▁언제까지	-10.6461
중국	-10.6462
▁순수하고	-10.6465
▁첨이다	-10.6465
▁재미없었	-10.647
▁실망스럽	-10.6474
▁이거보다	-10.6475
최고다	-10.6477
▁숨은	-10.6477
▁챙겨	-10.6487
▁나오네	-10.6496
▁나와야	-10.6496
▁기대이하	-10.6497
▁시작해서	-10.6498
▁가히	-10.6501
하겠습니다	-10.6502
▁대학	-10.6504
▁보겠다	-10.6505
▁뛰어넘는	-10.6506
▁여인	-10.6507
▁몰아	-10.6514
▁짜증나게	-10.6517
▁소장하고	-10.6521
▁미국식	-10.6523
▁화끈	-10.6524
▁조아	-10.6526
극히	-10.6526
▁절로	-10.6529
어야지	-10.6533
잊	-10.6539
se	-10.654
▁조연들	-10.6541
▁씁쓸하	-10.6547
▁및	-10.6551
싫다	-10.6554
▁망할	-10.6555
경찰	-10.6558
▁전문	-10.6562
▁다시보기	-10.6571
ed	-10.6575
▁만들려	-10.6576
▁당연	-10.658
풋	-10.6588
븐	-10.6588
램	-10.6588
찜	-10.6588
▁아름다워	-10.6588
▁임창정	-10.6588
▁명복을	-10.6588
▁비호감	-10.6588
▁칭찬	-10.6588
▁부자연	-10.6588
▁워낙	-10.6588
▁아쉬울	-10.6589
잊지못할	-10.6589
▁오글오글	-10.6589
▁감명깊게	-10.6589
▁향연	-10.6589
▁역겹다	-10.659
▁따름	-10.6594
▁엄청나게	-10.6595
▁개그맨	-10.6595
▁낫겠다	-10.6596
립니다	-10.6597
맞음	-10.6597
▁부활	-10.6598
▁마시길	-10.6599
▁혼란	-10.6599
▁좋겠습니다	-10.66
▁마음속	-10.6603
▁같았다	-10.6605
▁꼭보세요	-10.6606
뻔했다	-10.6607
좋아하	-10.6607
▁재미있었음	-10.6614
▁잃었	-10.6623
ᄏᄏᄏᄏᄏᄏᄏ	-10.6627
▁멋지게	-10.6635
▁무대	-10.664
▁러브	-10.6642
못함	-10.6643
▁어이없다	-10.6643
▁캐릭터를	-10.6653
▁하하	-10.6655
는것을	-10.6655
▁지났	-10.6657
맞아	-10.6658
▁한번더	-10.666
▁극장에	-10.6663
하고싶다	-10.6664
▁웃는	-10.6669
▁있겠	-10.6671
▁가시	-10.6673
▁맡은	-10.6674
해줄	-10.6681
인걸	-10.6687
▁연상	-10.6688
▁H	-10.6691
▁했더니	-10.6695
싫	-10.6697
▁코믹영화	-10.6697
▁새벽	-10.6702
▁여배우들	-10.6703
ch	-10.6703
▁쏘	-10.6711
빠져	-10.6713
▁작위적	-10.6722
▁의문이	-10.6722
▁볼것	-10.6725
▁당신이	-10.6729
▁최고네요	-10.673
꼽	-10.6732
프로그램	-10.6733
예술	-10.6734
▁말고는	-10.6735
벤	-10.6735
▁어디로	-10.6738
▁역사에	-10.674
잖	-10.6743
▁입장	-10.6746
▁연기력에	-10.6763
맺	-10.6764
밧	-10.6764
▁디카프리오	-10.6764
▁소름끼치는	-10.6764
▁재밌게봤어요	-10.6764
팩	-10.6764
▁스타워즈	-10.6764
▁왕조현	-10.6764
▁도데체	-10.6764
넷	-10.6764
▁스타뎀	-10.6764
▁무간도	-10.6765
▁어우	-10.6765
▁나타나	-10.6767
▁격투	-10.6767
▁그려낸	-10.6767
▁로빈	-10.677
▁시도는	-10.6772
▁철저	-10.6772
까봐	-10.6775
▁중학생	-10.6776
도좋고	-10.6777
▁J	-10.6782
▁케미	-10.6783
▁귀여워요	-10.6786
러운	-10.6788
▁볼만했	-10.679
▁소통	-10.6792
▁재미있었는데	-10.6794
▁다운받아서	-10.6796
▁어이없음	-10.6803
▁부산	-10.6803
▁독특하고	-10.6805
점만점에	-10.6807
▁분장	-10.6817
▁이딴영화	-10.6818
▁감동적이네요	-10.6821
▁말투	-10.6821
▁영상도	-10.6824
시킬	-10.6827
▁있으나	-10.6827
▁넘넘	-10.683
점부터	-10.6832
▁형편없는	-10.6834
▁탐	-10.6836
겼다	-10.6837
▁웃기는	-10.6839
▁있긴	-10.6841
▁상어	-10.6848
▁원하는	-10.6848
▁슬픈영화	-10.6856
비추	-10.6859
거같아	-10.686
▁구분	-10.6861
쁜	-10.6862
▁한시간	-10.6865
▁시기	-10.6871
▁뭐라고	-10.6872
▁빈약	-10.6884
▁들게	-10.6889
텐	-10.6889
▁귀여	-10.689
▁살리지	-10.6893
▁충분한	-10.6897
▁있었고	-10.6897
이랄까	-10.6898
▁이상하다	-10.6899
~~~~~	-10.6905
▁잠을	-10.6907
▁두시간	-10.6909
▁막판	-10.6909
▁살아야	-10.6916
빼곤	-10.6917
시청률	-10.6918
▁정체	-10.6918
그나마	-10.6919
판타지	-10.6919
CG	-10.6919
우리나라	-10.692
나왔으면	-10.6926
▁싶어서	-10.6926
▁최악의영화	-10.6928
14	-10.6929
허무	-10.693
이후로	-10.693
있네요	-10.6937
버렸네	-10.6942
▁뒤죽박죽	-10.6942
▁비쥬얼	-10.6942
▁살렸다	-10.6942
▁시종일관	-10.6942
▁알파치노	-10.6942
쌓	-10.6942
얄	-10.6942
콕	-10.6942
퉤	-10.6942
혔	-10.6942
▁아기자기	-10.6942
▁여러모로	-10.6942
▁미스터리	-10.6942
▁일주일	-10.6943
▁미스캐스팅	-10.6943
▁킬러	-10.6943
com	-10.6944
▁스파이	-10.6944
▁더러워	-10.6944
▁추격	-10.6944
▁묘한	-10.6946
▁돈아까워	-10.6947
구려	-10.6949
▁않으	-10.6951
여주인공	-10.6952
▁에효	-10.6954
미화	-10.6955
▁힘을	-10.6957
▁속았다	-10.6958
주기도	-10.6959
았으면	-10.6959
▁글을	-10.6963
지루하다	-10.6965
▁가짜	-10.6966
▁이별	-10.6966
▁최후	-10.6967
지루해	-10.6967
겨울	-10.6968
▁작화	-10.6972
멋잇	-10.6972
▁감명	-10.6975
▁되야	-10.6975
ᄃᄃᄃ	-10.6977
▁입장에서	-10.6979
▁최고라고	-10.6981
▁말인가	-10.6985
▁완벽하다	-10.6987
▁안나온다	-10.6988
▁공유	-10.6995
▁아이들에게	-10.7005
▁읽는	-10.7006
느냐	-10.7008
걸린	-10.7009
부리	-10.7016
▁타란티노	-10.7019
▁방해	-10.702
▁말밖에	-10.702
▁삶과	-10.7023
▁개봉당시	-10.7024
ra	-10.7029
기술	-10.7029
▁건질	-10.7031
▁다시금	-10.7031
▁만화영화	-10.7032
am	-10.7037
거에요	-10.7037
▁지키	-10.7038
▁싫어하는	-10.7044
▁전편보다	-10.7046
성우	-10.7052
▁별로였다	-10.7055
~~~~~~~~	-10.7065
▁범죄자	-10.7068
점주기도	-10.7069
외에는	-10.7077
▁소름돋는	-10.7079
▁프랑스영화	-10.7081
▁노인	-10.7081
▁ᄒᄒᄒᄒ	-10.7082
아무	-10.7083
▁흉내	-10.7088
▁알게되	-10.7101
탓	-10.7105
어떤	-10.7114
▁다른영화	-10.7118
해야하나	-10.7123
깁	-10.7124
렛	-10.7124
됫	-10.7124
▁아마추어	-10.7124
▁펼쳐	-10.7124
▁김수현	-10.7124
▁한효주	-10.7124
▁닥치고	-10.7124
▁직업	-10.7125
▁바탕으로	-10.7125
▁보지마셈	-10.7125
▁혁명	-10.7125
▁엽기	-10.7126
70	-10.7126
▁섬세하	-10.7127
▁난해한	-10.7128
▁억지스럽고	-10.7129
▁오래전에	-10.7129
각본	-10.7131
▁아니잖아	-10.7131
▁말씀	-10.7135
▁충분하다	-10.7137
▁어쩌다	-10.7138
▁모욕	-10.7142
스코	-10.7143
▁장난하나	-10.715
였구나	-10.7157
▁역사상	-10.7158
▁사회적	-10.7163
▁믿음	-10.7164
▁미녀	-10.7166
▁산만하고	-10.7169
▁사랑스럽고	-10.7171
▁옛날영화	-10.7172
~~~~~~	-10.7174
▁만들다	-10.7174
본거	-10.7175
▁단점	-10.7178
수밖에	-10.7178
▁준비	-10.7181
▁당장	-10.7183
스틴	-10.7184
▁위트	-10.7185
▁모르겠네	-10.7188
재밋엇	-10.7189
▁우선	-10.7192
▁팬들	-10.7193
▁충격적인	-10.7198
▁잼있네요	-10.7199
었구나	-10.72
지않게	-10.72
되길	-10.7202
▁그런거	-10.7206
▁오글거리는	-10.7211
▁받았다	-10.7212
▁철학적	-10.7212
▁당황	-10.7215
▁듣기	-10.7222
▁불과	-10.7223
▁뭐여	-10.7224
우드	-10.7224
▁스릴러물	-10.7235
▁비교해	-10.7236
▁질질끌	-10.7236
▁욕먹	-10.726
부르	-10.7262
▁보아도	-10.7263
▁살아있는	-10.7263
▁재미없네요	-10.7264
!!!!!!!!	-10.7271
행위	-10.7273
▁세상에서	-10.7275
하더니	-10.7296
얼마나	-10.7299
▁선동	-10.73
떼	-10.73
댓글	-10.7301
드네요	-10.7302
둑	-10.7306
병맛	-10.7308
ᅩ	-10.7308
샘	-10.7308
줍니다	-10.7309
덧	-10.7309
▁빕니다	-10.7309
▁강동원	-10.7309
▁섬세한	-10.7309
▁Good	-10.731
▁섬뜩	-10.731
▁승부	-10.7312
형사	-10.7312
▁풀어낸	-10.7313
▁픽사	-10.7313
▁미소가	-10.7316
▁감동적이에요	-10.7316
시켰	-10.7316
ost	-10.7317
▁좋으나	-10.7317
▁로망	-10.7325
▁못하겠다	-10.7327
▁보는것	-10.7328
▁울었어요	-10.7328
▁늙어	-10.7332
▁조낸	-10.7339
▁흥분	-10.734
살때	-10.7342
속으로	-10.7343
▁뻔한스토리	-10.735
▁사람에게	-10.7351
▁학생들	-10.7352
자꾸	-10.7356
▁보여줄	-10.7364
ce	-10.7366
▁될수	-10.7369
▁고마	-10.7374
▁멋져	-10.7375
버스	-10.7376
▁조금만	-10.7376
▁올라가	-10.738
▁movie	-10.7381
엇음	-10.7384
▁만들어라	-10.7387
믿고	-10.7392
그저	-10.7393
있었는데	-10.7398
▁좋아하지만	-10.7401
투성이	-10.7406
▁느껴지지	-10.7422
영활	-10.7425
▁심하다	-10.7426
▁낮은지	-10.7429
아까운영화	-10.743
▁대부	-10.7438
그대로	-10.744
돌려	-10.7445
▁나머지는	-10.7446
재밋다	-10.7456
▁뻔하다	-10.7459
▁똑같이	-10.7462
▁이것보다	-10.7466
▁알리	-10.7471
제일	-10.7475
야말로	-10.7482
닮	-10.7484
▁후하게	-10.7484
재밌고	-10.7488
▁실사	-10.7488
▁당신의	-10.7491
싹	-10.7492
▁잘생겼	-10.7494
▁미쳐	-10.7494
로맨스	-10.7498
▁캐릭	-10.7498
치면	-10.7498
퀸	-10.7498
넬	-10.7498
쏴	-10.7498
펜	-10.7498
▁엔딩크레딧	-10.7498
▁유치찬란	-10.7498
솜	-10.7498
오랫동안	-10.7498
▁마찬가지	-10.7498
▁클래식	-10.7498
▁납득	-10.7498
▁떡밥	-10.7498
▁ᄌᄂ	-10.7498
▁원숭이	-10.7498
어울림	-10.7498
생겨서	-10.7499
▁두고두고	-10.7499
▁극혐	-10.75
▁그럴싸	-10.75
▁레옹	-10.75
▁민족	-10.7501
▁쉬운	-10.7505
▁방향	-10.7505
▁시험	-10.7508
저런	-10.751
▁중년	-10.7512
▁모자라	-10.7514
▁한심하다	-10.752
▁고문	-10.7522
▁주려	-10.7523
▁안나오는	-10.7523
▁비록	-10.7529
▁매번	-10.7529
빠르	-10.7531
긴했지만	-10.7536
뻔함	-10.754
▁세월이	-10.7544
▁망쳐놓	-10.7544
▁아이유	-10.7548
▁우린	-10.7549
것인지	-10.755
▁남아있	-10.7551
그런데	-10.7553
할수없	-10.7554
^^;	-10.7555
▁나열	-10.7557
▁화질	-10.7558
▁아까워서	-10.7559
진행	-10.7559
▁진부하	-10.7566
▁무섭게	-10.7575
▁만들어졌	-10.7575
누님	-10.7582
▁행복하게	-10.7582
목숨	-10.7585
▁귀여웠	-10.7585
▁관심이	-10.7586
▁소유	-10.7587
점이나	-10.7587
▁훈훈하	-10.7597
▁현실은	-10.7603
현실적	-10.7607
▁티비로	-10.7608
나올때	-10.7608
▁한가지	-10.7611
▁나음	-10.7619
▁가야	-10.7621
뒤에	-10.7622
▁무서움	-10.7623
▁천사	-10.7626
▁넘어서	-10.7626
났음	-10.763
치기	-10.763
팬이	-10.7631
il	-10.7639
거보고	-10.7639
좀비	-10.7644
▁마시	-10.7646
이었어요	-10.7666
만족	-10.7678
▁잔인함	-10.7682
▁남는게	-10.7683
썼	-10.7684
간만에	-10.7685
륜	-10.7686
웠음	-10.7686
내려	-10.7686
▁장진	-10.7687
▁예수	-10.7687
▁웃었다	-10.769
낯	-10.769
멈	-10.769
▁즐거움	-10.769
덴	-10.769
숀	-10.769
왈	-10.769
뜸	-10.769
츄	-10.769
팽	-10.769
핫	-10.769
▁감성팔이	-10.769
드려요	-10.7691
▁온갖	-10.7692
리스트	-10.7692
▁자연스럽게	-10.7692
즐겁	-10.7694
▁4.44	-10.7694
▁잔잔함	-10.7694
덕분에	-10.7695
▁돌아보게	-10.7695
낭비	-10.7695
페이스	-10.7697
▁재앙	-10.7699
결혼	-10.77
▁또보고싶	-10.7701
명성에	-10.7702
봣어요	-10.7703
▁세계관	-10.7705
▁개꿀잼	-10.7707
분짜리	-10.7711
▁의도는	-10.7712
ic	-10.7712
▁괜찮았던	-10.7712
▁지옥	-10.7713
방에서	-10.7714
죽이고	-10.7719
▁인생영화	-10.772
▁재방	-10.7723
될까	-10.7725
▁못했	-10.7728
▁믿어	-10.7729
▁이만한	-10.7732
▁싶습니다	-10.7732
충격	-10.7739
달라고	-10.7739
▁영화라지만	-10.774
▁언어	-10.774
▁보게되는	-10.7744
하였다	-10.7746
▁조잡한	-10.775
하길래	-10.7752
▁눈으로	-10.7757
무시	-10.7759
▁커서	-10.7765
▁원작과	-10.7765
국민	-10.7766
줘요	-10.7769
▁이거보단	-10.7771
▁훌륭하	-10.7779
▁스파이더맨	-10.7781
▁일반인	-10.7785
로서는	-10.7787
▁살아남	-10.7795
▁맞다	-10.7799
하러	-10.7807
▁아쉬워요	-10.7808
스턴	-10.7813
삼류	-10.7819
▁끝날	-10.7825
좋겠	-10.7828
▁가르	-10.783
질질	-10.7831
됬다	-10.7834
▁남기는	-10.7839
▁별거	-10.7856
▁배우분들	-10.7861
싶은데	-10.7861
보던	-10.7864
답다	-10.7866
레드	-10.7871
▁재밋는	-10.7872
▁들어서	-10.7873
검사	-10.7875
▁챙겨보	-10.7878
ha	-10.7883
감명깊	-10.7885
렴	-10.7886
띠	-10.7886
잣	-10.7886
짙	-10.7886
▁머릿속	-10.7887
▁김혜수	-10.7887
☆	-10.7887
▁안타까움	-10.7887
▁피아노	-10.7887
▁기발한	-10.7887
ne	-10.7887
▁상큼	-10.7888
▁치밀하	-10.7889
▁케빈	-10.7889
▁로맨틱코미디	-10.7889
주었다	-10.7889
▁에라이	-10.7889
▁파격적	-10.789
▁방황	-10.7891
▁아니라면	-10.7892
us	-10.7893
▁짱이다	-10.7898
▁자랑	-10.7898
쩝	-10.7898
멀	-10.7899
애니메이션	-10.79
▁많네	-10.79
▁태국	-10.79
▁느껴질	-10.7902
ᄀᄀ	-10.7903
▁필요한가	-10.7906
예뻐	-10.7907
어가는	-10.7908
▁얻어	-10.7908
왠	-10.791
피디	-10.791
지않는다	-10.7919
▁제작비가	-10.7922
▁후반부에	-10.7923
더라고요	-10.7927
▁한동안	-10.7928
잼씀	-10.7929
▁괜찮네요	-10.7933
▁오그라들	-10.7939
▁웃겼다	-10.7941
▁느껴졌다	-10.7942
▁채워	-10.7942
수작	-10.795
관리	-10.7964
마저도	-10.7968
▁외국인	-10.7968
제국	-10.7969
▁있었음	-10.7973
▁느끼고	-10.7979
▁나왔던	-10.798
▁뛰어넘	-10.7986
빠짐	-10.7986
▁못봐주겠	-10.7988
할수없는	-10.7989
호러	-10.7991
▁짜증났	-10.7993
▁짱구	-10.7994
반갑	-10.7994
▁신화	-10.7999
없었	-10.7999
보려	-10.8
▁없던	-10.8005
▁발음	-10.8012
누구	-10.8019
▁낚인	-10.8026
싶네요	-10.8028
지마세요	-10.8031
▁알려주는	-10.8033
끝나고	-10.8038
좋은데	-10.804
▁두명	-10.804
동화	-10.804
▁잼있는	-10.8047
▁눈치	-10.805
▁실망이다	-10.8053
▁나오기	-10.8057
구역	-10.8059
▁알아야	-10.8065
분정도	-10.8067
잇엇	-10.8078
웠던	-10.8081
올린	-10.8084
▁킬링	-10.8086
꽁	-10.8086
▁뒤늦게	-10.8086
▁어정쩡	-10.8086
쭈	-10.8086
팝	-10.8086
뻑	-10.8086
랏	-10.8087
▁데이빗	-10.8087
▁애초에	-10.8087
▁오그라드는	-10.8087
▁바란다	-10.8087
흑흑	-10.8088
▁전성기	-10.8089
▁자연스러운	-10.8091
vs	-10.8093
놈은	-10.8094
▁프레	-10.81
▁감동적입니다	-10.81
예전	-10.8101
▁무엇이	-10.8102
▁또라이	-10.8104
▁고증	-10.8106
올려	-10.8108
▁처음본다	-10.8108
예쁘	-10.8111
하지않고	-10.8112
▁담고	-10.8114
▁봐주	-10.812
▁웃음을	-10.8126
학년때	-10.8127
▁보고싶은데	-10.8129
▁답답해	-10.814
학원	-10.8141
▁하하하	-10.8142
▁정리	-10.8146
▁빠져들게	-10.8146
▁모든것이	-10.8151
id	-10.8152
릴때	-10.8153
재밋음	-10.816
▁역작	-10.8164
▁의미있는	-10.8165
▁화끈한	-10.8168
▁밋밋한	-10.8172
▁막상	-10.8174
할려고	-10.8177
▁도와	-10.8178
안되고	-10.8179
la	-10.8191
el	-10.8193
거든	-10.8196
▁부족하고	-10.8201
▁안되네	-10.8202
▁무협영화	-10.8203
▁웃겼	-10.8204
것들이	-10.8211
▁본격	-10.8216
보려고	-10.8219
깐	-10.8224
시키지	-10.8231
했어도	-10.8233
▁글고	-10.8238
▁전율	-10.8249
▁잠들	-10.8258
▁불쌍해	-10.8267
▁열라	-10.8268
어른	-10.827
남주	-10.8274
▁대박이다	-10.8274
▁독립	-10.8285
▁니들이	-10.8286
▁허허	-10.8287
혐	-10.8289
▁아무나	-10.8289
뎀	-10.829
아카데미	-10.8291
쩍	-10.8291
푼	-10.8291
▁고등학생	-10.8291
▁런닝타임	-10.8291
▁크레딧	-10.8291
뚫	-10.8291
좆	-10.8291
▁미스테리	-10.8291
▁세련된	-10.8291
▁엄정화	-10.8291
▁짬뽕	-10.8291
▁완젼	-10.8291
▁한석규	-10.8291
▁스페인	-10.8291
▁늙은	-10.8294
▁닮았	-10.8296
▁찬양	-10.8297
▁억지스런	-10.8298
▁사이코	-10.83
▁먹칠	-10.83
보러	-10.8301
하든	-10.8305
▁빠질	-10.8309
▁복선	-10.8312
▁환장	-10.8313
두번	-10.8316
▁재밌었습니다	-10.8318
첫	-10.832
옛날	-10.8321
▁채우	-10.8323
초딩	-10.8325
크리	-10.8326
내리	-10.8327
철학	-10.8328
졌음	-10.8329
▁당연한	-10.8331
▁멋있고	-10.8331
폭력	-10.8333
▁최고에요	-10.8334
▁봐줄만	-10.8335
▁한사람	-10.8337
에휴	-10.8338
▁주온	-10.834
▁모방	-10.8341
▁있겠지만	-10.8343
▁부인	-10.8343
▁않습니다	-10.8353
▁느낀다	-10.8355
▁웃겨서	-10.836
▁얘기를	-10.8362
▁오해	-10.8363
▁제대로된	-10.8364
▁정체성	-10.837
▁편하게	-10.8373
들끼리	-10.8374
▁다가오	-10.8375
▁최고최고	-10.8379
할정도로	-10.8381
▁낮네요	-10.8381
▁니네	-10.8394
▁안보면	-10.8401
▁현실적이고	-10.8402
▁본능	-10.841
▁무식	-10.8411
▁상업영화	-10.8411
▁감독에게	-10.8418
▁의해	-10.8418
프라	-10.842
▁못만들	-10.8425
구먼	-10.8429
작가님	-10.8431
▁꿈과	-10.8434
▁지경	-10.8436
▁커버	-10.8437
▁아까웠	-10.8439
조아	-10.8439
▁17	-10.8442
떨어지	-10.8444
▁제작자	-10.8457
▁안가는	-10.8463
차원	-10.8466
실화	-10.8467
ve	-10.8469
▁역사적	-10.847
하기에는	-10.8483
어설프	-10.8494
랍	-10.8495
▁일깨워	-10.8497
냄	-10.8497
▁힘들어	-10.8498
썰	-10.8499
뜯	-10.8499
ᄊ	-10.8499
ᄐ	-10.8499
▁호불호가	-10.8499
믄	-10.8499
****	-10.8499
▁그냥저냥	-10.8499
▁흘렸	-10.8499
시끄럽	-10.8499
▁설경구	-10.8499
▁나루토	-10.8499
▁원피스	-10.8499
▁드니로	-10.8499
▁후속편	-10.8499
▁시청자들	-10.8499
▁귀찮	-10.8501
어지럽	-10.8501
▁호흡	-10.8501
▁가슴아프	-10.8503
▁생존	-10.8506
높아	-10.851
▁시골	-10.8512
▁간직	-10.8514
▁브레	-10.8515
▁개인적인	-10.8516
▁초반엔	-10.8516
▁바라는	-10.8517
▁가족과	-10.8521
▁거짓	-10.8522
▁두개	-10.8524
▁되었습니다	-10.8524
점주고	-10.853
줄알고	-10.853
됬는데	-10.853
▁감정선	-10.8532
남긴다	-10.8532
▁심장이	-10.8532
옷	-10.8532
▁스포	-10.8533
것같음	-10.8534
▁극본	-10.8535
▁마블	-10.8535
▁성형	-10.8535
갑자기	-10.8538
잭슨	-10.8538
촬영	-10.8539
▁이런식으로	-10.8539
암튼	-10.8541
▁시체	-10.8541
▁미학	-10.8541
▁멜로영화	-10.8541
보길	-10.8546
▁기대된다	-10.8549
▁않아요	-10.8559
▁쓰러	-10.856
역을	-10.856
▁갖게	-10.8562
▁저리	-10.8562
▁높지	-10.8564
▁물어	-10.8564
회부터	-10.8565
있었던	-10.8566
▁재수없	-10.8577
끝내	-10.8578
ter	-10.858
▁16	-10.858
아닌데	-10.8582
좋아하는데	-10.8586
▁만들었으면	-10.8587
▁기대했던	-10.8588
▁상처를	-10.8591
해가는	-10.8593
▁점에서	-10.8595
볼때	-10.86
▁내취향	-10.8602
▁진부하다	-10.8611
▁첨으로	-10.8619
▁해외	-10.8632
아직	-10.8636
▁과정이	-10.8639
▁남아있는	-10.8642
오르는	-10.8648
▁정부	-10.8656
▁즐겨	-10.8659
바른	-10.8664
▁나오네요	-10.867
▁웃기기	-10.8683
하려면	-10.8685
▁출연자	-10.8686
었을텐데	-10.8689
ri	-10.8692
룬	-10.8692
졌으면	-10.8699
한국영화	-10.8707
댓	-10.871
콤	-10.871
봇	-10.871
랍니다	-10.8711
쇄	-10.8712
▁듭니다	-10.8712
▁박찬욱	-10.8712
▁에드워드	-10.8712
▁영웅본색	-10.8712
▁테이큰	-10.8712
숲	-10.8712
턱	-10.8712
Y	-10.8712
▁2.22	-10.8712
▁아이언맨	-10.8712
▁팝콘	-10.8712
▁정주행	-10.8712
▁김희선	-10.8712
▁어딘가	-10.8712
▁흥미롭게	-10.8712
▁수면제	-10.8713
▁슈퍼맨	-10.8716
▁공룡	-10.8717
▁새삼	-10.8717
▁취향이	-10.872
ᅲᅲᅲᅲᅲ	-10.872
▁이하도	-10.8721
▁러닝타임이	-10.8723
뭔지	-10.8725
▁경악	-10.8726
▁히어로물	-10.8729
▁멋져요	-10.8731
앞에	-10.8732
▁감동적이었다	-10.8732
▁거기서	-10.8733
▁심각하게	-10.8734
▁동화같은	-10.8734
▁광기	-10.8736
그녀	-10.8739
▁회상	-10.8747
▁귀여워서	-10.8747
▁강추합니다	-10.8749
▁액션물	-10.875
하겠지만	-10.8751
▁만들었냐	-10.8751
▁않으면	-10.8754
▁흉내내	-10.8755
무서운	-10.8758
▁어린아이	-10.8759
▁봐야한다	-10.8759
멋대로	-10.8759
오랜만에	-10.876
있다면	-10.8764
▁긴장감과	-10.8766
전체	-10.8766
▁편인데	-10.8767
▁전율이	-10.8771
▁피식	-10.8772
▁거기	-10.8773
▁좋더라	-10.8775
▁몰입하게	-10.8775
▁구경	-10.8781
:)	-10.8786
▁우리에게	-10.8786
▁포함	-10.8787
웃긴	-10.8789
분들께	-10.8792
▁명배우	-10.8794
공부	-10.8795
▁허구	-10.8796
▁있어보이	-10.8798
▁걸작이다	-10.8799
▁연주	-10.8801
▁이어지는	-10.8805
▁안봐서	-10.8806
▁만들어야	-10.8811
입장	-10.8814
▁세월	-10.8814
▁머냐	-10.8815
져야	-10.8818
잘못	-10.8818
스러웠다	-10.882
▁대역	-10.8829
▁머야	-10.8837
▁다름	-10.8841
▁믿는	-10.8852
나봐요	-10.8861
레기	-10.8865
▁느껴졌	-10.8866
순수	-10.8878
보기엔	-10.8883
말도안되	-10.8883
▁못했던	-10.8884
같애	-10.8894
빡치	-10.8899
▁적절	-10.8902
▁이딴게	-10.8903
보지마라	-10.8904
▁망쳐	-10.8904
▁오랜	-10.8909
▁싶다면	-10.8911
▁반감	-10.8923
밍	-10.8929
늬	-10.8929
▁군더더기	-10.8929
▁송승헌	-10.8929
▁점수준것들	-10.8929
릅	-10.8929
즉	-10.8929
▁손예진	-10.8929
▁어차피	-10.8929
▁권상우	-10.8929
▁오페라	-10.8929
▁외로움	-10.8929
▁흠잡을	-10.8929
▁왕가위	-10.8929
▁보낸다	-10.8929
점준것중	-10.8929
▁심리묘사	-10.893
▁엠마	-10.893
▁어설프게	-10.893
▁색채	-10.8932
땜시	-10.8933
▁상식	-10.8933
낫다	-10.8934
▁가능성	-10.8935
▁웃으며	-10.8936
▁재탕	-10.8937
드리고	-10.8939
▁반응	-10.8942
▁무기	-10.8949
▁아깝습니다	-10.8951
▁힘들었다	-10.8952
강력추천	-10.8952
▁웃다가	-10.8953
▁괜찮을	-10.8964
▁결국엔	-10.8965
▁이딴거	-10.8972
▁레오	-10.8973
▁말았다	-10.8981
▁공연	-10.8983
op	-10.8984
▁인연	-10.899
더럽게	-10.8991
때문	-10.8991
킬링타임	-10.8993
▁경우	-10.8996
죽여	-10.8996
볼때마다	-10.8997
▁여유	-10.8998
실패	-10.9
▁자세	-10.9003
▁지금보면	-10.9005
▁벌어	-10.9007
▁검색해	-10.9008
▁십점	-10.9011
많은것을	-10.9011
평생	-10.9016
같네요	-10.9018
▁자위	-10.9018
▁보이고	-10.9019
년간	-10.9022
▁전라도	-10.9025
▁매주	-10.9032
▁나올까	-10.9033
장님	-10.9037
▁최고인듯	-10.9041
학대	-10.9045
▁장점	-10.9053
▁인식	-10.9059
지루한	-10.9061
▁다시봤는데	-10.9064
▁허접하고	-10.9067
폴	-10.907
줄거리	-10.9073
나이트	-10.9077
▁ᄏᄏᄏᄏᄏᄏᄏᄏᄏᄏᄏᄏᄏᄏ	-10.9082
듣고	-10.9087
좋겠다	-10.909
보지마세요	-10.9096
되네	-10.9102
▁어울리	-10.9105
▁싫은	-10.9106
버그	-10.9107
et	-10.9107
▁명작임	-10.9109
보여서	-10.9116
않았다	-10.9117
▁필요하다	-10.9117
▁안봄	-10.9117
별점	-10.9119
▁본듯한	-10.9122
남매	-10.9128
200	-10.9134
▁연기잘하	-10.9143
괜	-10.9144
밋	-10.9145
▁스필버그	-10.9151
넓	-10.9151
▁가볍지	-10.9151
▁깨달음	-10.9151
▁멘탈	-10.9151
▁나머진	-10.9151
▁픽션	-10.9151
▁아바타	-10.9151
▁컬트	-10.9152
▁예뻐서	-10.9152
▁가까이	-10.9152
▁택시	-10.9153
▁절묘	-10.9154
><	-10.9154
▁2015	-10.9155
▁찍지	-10.9155
▁낮추	-10.9158
▁과장된	-10.9159
할게요	-10.9159
▁치료	-10.9161
▁음향	-10.9167
▁대사와	-10.9169
▁알려주	-10.9172
▁소품	-10.9173
▁번역	-10.9174
▁기억난다	-10.9176
▁경계	-10.9176
▁모순	-10.9176
▁못따라	-10.9178
▁향한	-10.9178
▁내시간	-10.918
▁일찍	-10.918
▁전설이	-10.9181
김구라	-10.9182
▁우승	-10.9186
▁애정	-10.9189
▁알바생	-10.9192
▁-_-;;	-10.9196
▁남긴	-10.9196
▁불쌍해서	-10.9199
▁로마	-10.92
한텐	-10.9204
겨운	-10.9206
만든영화	-10.9209
▁정석	-10.9212
민호	-10.9214
마무리	-10.9217
그래픽	-10.922
▁오직	-10.9221
테니	-10.9222
모델	-10.9222
tv	-10.923
다시보고싶	-10.923
무서움	-10.923
모르겠다	-10.9234
.,.,	-10.9238
큼	-10.9242
입니까	-10.9247
멋진	-10.9248
천재	-10.9251
▁외면	-10.9252
▁청년	-10.9253
▁성적	-10.9254
▁풀어내	-10.9256
▁스릴감	-10.9259
▁면이	-10.926
▁후반부로	-10.9264
▁우울한	-10.9265
▁동감	-10.9267
▁토니	-10.9269
사장	-10.927
▁비해서	-10.9274
▁영상미와	-10.9289
▁흥미진진한	-10.929
▁확실하	-10.9291
신부	-10.9296
▁없으니	-10.9297
보였다	-10.9304
▁메세지를	-10.9312
였네	-10.9313
원주고	-10.9315
그림	-10.9315
ie	-10.9317
▁뜬금없	-10.9318
▁나올수	-10.9325
▁최악임	-10.9328
고싶었	-10.9331
겠는가	-10.9338
보니깐	-10.934
▁밝혀	-10.9351
▁시대적	-10.9352
설명	-10.9354
▁머리속	-10.9355
▁바라보는	-10.9356
떨어지는	-10.9359
습니까	-10.9367
▁잼없다	-10.9374
▁본방	-10.9378
킥	-10.9378
▁겨울왕국	-10.9379
▁봤는지	-10.9379
쇠	-10.9379
썬	-10.9379
졋	-10.9379
▁다이하드	-10.9379
▁도라에몽	-10.9379
▁소피마르소	-10.9379
▁싸이코패스	-10.9379
▁엉망진창	-10.9379
▁학창시절	-10.9379
삘	-10.9379
▁간간히	-10.9379
▁구혜선	-10.9379
▁김명민	-10.9379
카메론	-10.9379
▁최민수	-10.9379
▁지저분	-10.9379
▁영향을	-10.9379
원래	-10.9379
▁실상	-10.9379
▁총체적	-10.938
▁와닿지	-10.938
▁줄리아	-10.9381
▁저평가	-10.9386
▁흔적	-10.9387
▁욕나온다	-10.9387
▁열광	-10.9389
▁국산	-10.939
▁커피	-10.9391
▁흥미롭지	-10.9393
▁공허	-10.9394
▁의견	-10.9394
▁냉정	-10.9396
질러	-10.9402
▁좋아하지	-10.9402
▁감동적임	-10.9404
잔인하	-10.9408
▁식상하다	-10.9408
▁인간적으로	-10.9411
▁처음이네	-10.9415
18	-10.9419
▁이은주	-10.9425
▁있었습니다	-10.9427
▁에로물	-10.9433
▁어디까지	-10.9433
▁중국영화	-10.9436
▁끝남	-10.944
▁좋아했던	-10.9444
▁날리	-10.9444
했었다	-10.9445
▁아닌것	-10.9447
▁훈훈하고	-10.9448
▁이따위로	-10.9449
▁만든건지	-10.9453
장군	-10.9453
무서워	-10.9453
▁법정	-10.9456
선생님	-10.9457
아름다운	-10.9458
▁빈약한	-10.9458
그때	-10.9461
▁약하다	-10.9461
▁화가나	-10.9472
▁손색이	-10.948
감상	-10.9484
노출	-10.9486
▁go	-10.9488
엉성	-10.9496
혀서	-10.9501
쪽으로	-10.9505
대체	-10.9509
▁의도를	-10.9511
▁형식	-10.9518
걸작	-10.9524
거같네요	-10.9538
▁이것은	-10.954
2005	-10.9552
▁OOOO	-10.9558
▁가져다	-10.9561
▁감동입니다	-10.9562
▁알게된	-10.9582
▁산만하	-10.9584
▁등장하는	-10.959
▁끄는	-10.9591
▁살인자	-10.9592
▁중학교	-10.9596
▁기사	-10.96
인상깊었	-10.9609
긍	-10.9611
곽	-10.9611
떳	-10.9611
▁기다렸	-10.9611
▁숨막히	-10.9611
▁어쨌든	-10.9611
헨	-10.9611
▁국어책	-10.9611
▁웬만하면	-10.9611
스러울	-10.9611
▁콜린	-10.9612
▁틀림없	-10.9612
스피드	-10.9612
▁심오한	-10.9612
▁관람객	-10.9613
▁강아지	-10.9613
▁뉴스	-10.9613
▁안타까웠	-10.9615
▁문득	-10.9616
▁람보	-10.9616
▁걸리	-10.9616
▁미친듯이	-10.9616
▁패션	-10.962
-.-	-10.9621
▁재방송	-10.9623
▁여태까지	-10.9625
▁중반부터	-10.9626
▁떨어졌	-10.9626
▁출발	-10.9626
▁뭐랄까	-10.9626
▁지루했음	-10.9629
▁찍으	-10.9629
▁이기적인	-10.963
▁미술	-10.9641
▁신경쓰	-10.9641
▁보는동안	-10.9643
▁야하지도	-10.9646
▁없애	-10.9652
▁향기	-10.9655
팬이라	-10.9655
것들은	-10.9656
▁마법	-10.9659
척하는	-10.9659
▁고작	-10.9661
넘치는	-10.9661
▁배울	-10.9668
CGV	-10.967
영씨	-10.9678
▁괴수	-10.968
▁믿을게	-10.968
직원	-10.9687
궁금해	-10.9689
썩	-10.9693
▁개소리	-10.9693
▁미안해	-10.9696
하죠	-10.9698
잘봤습니다	-10.9702
ᄉᄇ	-10.9704
네이버	-10.9705
편부터	-10.9706
힘든	-10.9707
중간에	-10.971
▁장소	-10.9712
▁감동받	-10.9716
성룡	-10.9717
▁아련한	-10.9723
재밋어요	-10.9725
것도아니고	-10.9726
▁데려다	-10.9729
없었다	-10.9731
▁흐르	-10.974
▁통해서	-10.9742
하나하나	-10.9747
▁못본	-10.975
▁만들었네	-10.975
▁베일	-10.9757
▁재밋어	-10.9761
끝날때까지	-10.9765
작전	-10.9765
▁지금이나	-10.9768
▁죽일	-10.9768
ᄍᄍᄍ	-10.9775
ᄒᄒᄒᄒ	-10.978
▁모여	-10.9792
▁호감	-10.9795
안좋	-10.9807
▁좋구	-10.981
▁죽는다	-10.9811
밑에	-10.9812
▁네이버평점	-10.9821
▁깨닫	-10.9822
▁태어나	-10.983
▁들여	-10.9837
롯	-10.9844
앵	-10.9847
읍	-10.9847
흉	-10.9849
뚜	-10.9849
▁엑스맨	-10.9849
▁트랜스포머	-10.9849
겸	-10.9849
끓	-10.9849
묶	-10.9849
캠	-10.9849
▁힙합	-10.9849
헝	-10.9849
훗	-10.9849
▁김민종	-10.9849
▁박평식	-10.9849
▁멈추	-10.9849
▁농담	-10.9849
▁전지현	-10.985
▁갖춘	-10.9851
▁증명	-10.9851
파이팅	-10.9851
▁데뷔작	-10.9852
▁애국심	-10.9853
▁말이필요없다	-10.9853
▁첫번째	-10.9853
▁안성기	-10.9854
▁사라진	-10.9855
▁중후반	-10.9857
▁시간아까워	-10.9857
▁빨간	-10.9858
▁허탈	-10.9861
▁아침드라마	-10.9862
▁러브스토리	-10.9862
▁모독	-10.9865
▁피곤	-10.9866
▁환상적인	-10.9867
▁부각	-10.9873
▁터지는	-10.9876
▁적당하다	-10.9876
▁재미없었음	-10.9877
▁이따구로	-10.988
▁더욱더	-10.9882
▁소중하	-10.9884
웃겼음	-10.989
▁내놓	-10.9893
▁굉장한	-10.9894
봤을땐	-10.9894
▁자격	-10.9897
▁정통	-10.9899
▁조악	-10.9903
▁가관	-10.9905
할정도	-10.9912
호텔	-10.9914
▁보고싶네요	-10.9916
맥스	-10.9917
▁못하네	-10.992
▁없을까	-10.9925
주관적	-10.9932
▁많음	-10.9937
▁명작이라고	-10.9938
▁대학생	-10.9949
H	-10.995
한마디로	-10.9952
유쾌	-10.9952
특유의	-10.9952
했더니	-10.9964
▁돌아오	-10.9967
60	-10.9968
▁본적이	-10.9969
▁되어야	-10.9994
▁이영화보고	-10.9999
억울	-11.0004
설마	-11.002
be	-11.0023
재미있음	-11.003
▁가상	-11.0038
▁보는사람	-11.004
▁인도영화	-11.0042
▁통쾌한	-11.0048
년동안	-11.0056
▁불쾌한	-11.0058
▁198	-11.008
써요	-11.0082
▁운동	-11.0085
하잖아	-11.0086
싼	-11.0088
▁떠오르는	-11.0088
드래곤	-11.0093
펠	-11.0093
^_^	-11.0093
▁MBC	-11.0093
▁신데렐라	-11.0093
▁아쉬웠지만	-11.0093
▁이탈리아	-11.0093
▁톰크루즈	-11.0093
▁흐지부지	-11.0093
뎁	-11.0093
뎌	-11.0093
줫	-11.0093
▁정확히	-11.0093
▁사무라이	-11.0093
▁오우삼	-11.0093
▁더더욱	-11.0093
▁흑역사	-11.0093
http	-11.0093
▁신세경	-11.0093
▁어떠한	-11.0093
그나저나	-11.0093
▁장동건	-11.0093
▁드래곤볼	-11.0093
▁깜놀	-11.0093
▁엽문	-11.0093
꼬맹이	-11.0093
▁다니엘	-11.0094
▁모자란	-11.0094
▁스킵	-11.0094
▁색다르	-11.0094
▁색깔	-11.0094
▁전도연	-11.0095
▁학살	-11.0095
안쓰는데	-11.0097
수가없다	-11.0097
밖엔	-11.0098
▁이민기	-11.0099
▁퇴보	-11.01
▁꺼져	-11.0101
▁몰락	-11.0102
▁에릭	-11.0103
으세요	-11.0105
▁신세계	-11.0105
▁쏘우	-11.0107
▁지브리	-11.0107
▁태양	-11.0108
▁복수극	-11.0108
▁좋아하시는	-11.0115
없어요	-11.0116
▁모아	-11.0119
▁백배	-11.012
▁남친	-11.0121
▁제왕	-11.0123
▁틀어주	-11.0124
▁남기고	-11.0126
▁초반부터	-11.0126
비행	-11.013
▁의미없는	-11.0132
mo	-11.0133
▁울림	-11.0135
▁임신	-11.0137
▁소소하	-11.014
자매	-11.014
▁잼나요	-11.0142
▁성경	-11.0142
▁미치는	-11.0147
엇어요	-11.015
타령	-11.0158
닼	-11.0158
▁변신	-11.0158
▁빠지게	-11.0159
▁엘리	-11.0164
▁추천한다	-11.0164
▁최하	-11.0168
자막	-11.0172
▁만날	-11.0172
▁그시절	-11.0177
필드	-11.0179
▁잔인하고	-11.018
볼려고	-11.0183
ma	-11.0185
▁생각나게	-11.0192
▁명작이네요	-11.0192
취향	-11.0194
▁슬펐다	-11.0196
▁특이한	-11.0196
쫌	-11.0208
▁남자배우	-11.0211
▁재밌게봤는데	-11.0212
필름	-11.0213
▁장난감	-11.0213
▁따뜻함	-11.0228
▁낚였네	-11.0232
▁만세	-11.0242
볼꺼	-11.0258
▁아름다웠	-11.026
▁공포감	-11.0263
very	-11.0269
ᄒᄒᄒᄒᄒ	-11.027
탁월한	-11.0273
▁다시보게	-11.0284
감성	-11.0293
▁비교하면	-11.0296
▁공감대	-11.0312
중딩	-11.0313
섯	-11.0324
하시네요	-11.0328
▁게스트	-11.0332
키우	-11.0338
믹	-11.034
끗	-11.0343
깡	-11.0343
▁엉터리	-11.0343
▁인상깊게	-11.0343
탠	-11.0343
▁매끄럽지	-11.0343
▁어설퍼	-11.0343
▁키아누	-11.0343
겄	-11.0343
딕	-11.0343
뼈	-11.0343
펴	-11.0343
▁미장센	-11.0343
▁완죤	-11.0343
▁황정민	-11.0343
쉣	-11.0343
▁최민식	-11.0343
습니당	-11.0343
▁윌리스	-11.0343
▁ᄇᄉ	-11.0343
▁함부로	-11.0343
▁일어날	-11.0344
▁이정재	-11.0344
▁니콜라스	-11.0344
▁8.5	-11.0345
몇번	-11.0345
▁보여줌	-11.0346
://	-11.0347
▁낚여서	-11.0348
헌터	-11.035
▁마틴	-11.035
▁극찬	-11.0353
십니다	-11.0354
연애	-11.0355
▁담아	-11.0356
▁교회	-11.0357
▁실패작	-11.0357
▁2003	-11.0357
하루	-11.0358
▁노튼	-11.0359
▁드문	-11.0359
▁오글거려서	-11.036
점도아깝다	-11.036
▁영광	-11.0361
▁질문	-11.0362
▁존잼	-11.0362
▁잔잔하지만	-11.0363
▁집단	-11.0364
▁카피	-11.0367
▁돈아깝다	-11.0367
▁유령	-11.0367
▁단역	-11.0368
▁사람마다	-11.0369
▁한번씩	-11.037
▁히트	-11.0373
얘	-11.0376
▁무슨말이	-11.0376
▁늙었	-11.0379
▁드물	-11.038
▁유치하기	-11.0385
할텐데	-11.0413
▁아름다웠다	-11.0413
▁또봐도	-11.0415
▁말아먹은	-11.0428
가아니라	-11.0434
바탕	-11.0438
▁날려	-11.0438
인것같다	-11.0446
▁재밌게본	-11.0453
귀여워	-11.047
개연성	-11.047
그렇지	-11.0471
히어로	-11.0472
▁생각했던	-11.0472
cg	-11.0477
▁다음편	-11.0481
영웅	-11.0487
▁높네	-11.0492
페이지	-11.0494
▁조폭영화	-11.0494
▁밀어	-11.0501
▁결말까지	-11.0502
,,,,,,	-11.0502
▁깔끔	-11.0508
▁진정성	-11.0516
▁강하게	-11.052
달리	-11.0522
유머	-11.0526
남편	-11.0527
▁허무함	-11.0532
점만점	-11.0534
씩이나	-11.0544
전달	-11.0553
ᄃᄃᄃᄃ	-11.0568
▁이해되	-11.0578
▁존스	-11.0584
안타까	-11.0593
주의자	-11.0595
퉁	-11.0599
밉	-11.0599
뱅	-11.0599
펼	-11.0599
뉘	-11.06
윽	-11.06
▁과대평가	-11.06
▁윌리엄	-11.06
런닝맨	-11.06
밨	-11.06
벙	-11.06
앜	-11.06
▁차태현	-11.06
썻	-11.06
▁가슴아픈	-11.06
▁정당화	-11.06
▁징징	-11.06
▁멀쩡	-11.06
▁솔까	-11.06
▁거슬리	-11.06
▁납치	-11.06
▁젊음	-11.06
▁찬사를	-11.0601
▁클라스	-11.0602
▁경의를	-11.0603
▁죽기전에	-11.0603
징그러	-11.0604
▁상당한	-11.0605
▁사라져	-11.0605
▁고마운	-11.0605
▁돈낭비	-11.0605
▁뽑아	-11.0607
▁장혁	-11.061
▁우롱	-11.0611
▁황금	-11.0613
▁필요없음	-11.0616
노동자	-11.0618
▁울었습니다	-11.0621
▁재미나게	-11.0624
▁재밌기만	-11.0624
▁겉멋만	-11.0631
▁몰랐는데	-11.0631
PD	-11.0635
▁슬퍼요	-11.0637
▁안타깝네요	-11.0638
▁나오다니	-11.0638
▁재현	-11.0639
하트	-11.0641
▁기록	-11.0644
▁실화라는	-11.0644
▁어케	-11.0648
클럽	-11.0649
▁슬프네요	-11.0651
▁하던가	-11.0654
▁집어	-11.0657
▁답답해서	-11.0665
▁힘내	-11.0665
작렬	-11.0665
만들엇	-11.0672
▁재미있어서	-11.0672
▁없었는데	-11.0673
▁꼭봐야	-11.0674
▁황당하	-11.0676
▁에러	-11.0678
활동	-11.0682
하느라	-11.0685
▁다른사람	-11.0687
▁사망	-11.0691
▁뜬금	-11.0692
▁안좋은	-11.0692
▁어색함	-11.0701
갔으면	-11.0705
▁꺼내	-11.0715
것같습니다	-11.0717
이아니라	-11.0724
▁볼만한데	-11.0726
탐	-11.0739
저예산	-11.0741
▁비현실적이	-11.0742
변화	-11.0773
영상미	-11.0776
im	-11.0787
겠냐	-11.0807
▁모르나	-11.0817
지않나	-11.0823
▁이따구	-11.0829
되지않	-11.0835
날때	-11.0846
뿔	-11.0854
때문이	-11.0857
▁아쉬워	-11.0857
졌어요	-11.0858
▁굳굳	-11.0859
덮	-11.086
쎄	-11.0861
▁재주	-11.0862
옵	-11.0863
▁다세포소녀	-11.0863
띵	-11.0863
럿	-11.0863
릉	-11.0863
맷	-11.0863
빤	-11.0863
쏙	-11.0863
코스프레	-11.0863
▁끝판왕	-11.0863
▁다크나이트	-11.0863
웰	-11.0863
▁아프리카	-11.0863
▁김태희	-11.0863
▁공중파	-11.0863
▁긴박감	-11.0863
▁모성애	-11.0863
▁평점조절	-11.0863
▁여기저기	-11.0863
▁임청하	-11.0863
▁레이첼	-11.0863
▁아이러니	-11.0863
▁혹평	-11.0863
▁어지간	-11.0863
▁더럽다	-11.0863
▁다운로드	-11.0864
▁사기꾼	-11.0864
▁노골적	-11.0864
▁크리스찬	-11.0865
▁담백하	-11.0865
▁특수	-11.0865
펙트	-11.0866
▁썩어	-11.0868
창있네	-11.0868
▁원작소설	-11.0868
▁바꾼	-11.0869
볼만한	-11.0869
▁억지설정	-11.087
▁성찰	-11.087
▁2004	-11.0872
였으나	-11.0872
▁대표적인	-11.0872
▁몇번이나	-11.0876
카드	-11.0877
▁뿌리	-11.0877
▁제정신	-11.0877
▁불행	-11.0887
▁어렸을적	-11.0889
▁알려준	-11.0889
▁볼만했는데	-11.0894
▁분명히	-11.0894
▁요약	-11.0894
▁존재하는	-11.0895
▁짧아	-11.09
겁니까	-11.0903
▁기독교인	-11.0904
등급	-11.0906
▁알겠지만	-11.091
▁도중에	-11.091
▁무색	-11.0918
영화자체는	-11.0924
▁그지같은	-11.0925
합니까	-11.0928
▁좋아하네요	-11.093
▁처음이네요	-11.0936
▁재밌당	-11.0938
▁남발	-11.0941
▁해피	-11.0944
▁있나요	-11.0946
▁무리수	-11.0951
▁빌리	-11.0951
▁할배	-11.0955
▁일본판	-11.0958
▁재밋는데	-11.0958
나와라	-11.0962
▁재밋네요	-11.097
했냐	-11.0974
였다니	-11.0976
▁찾아볼	-11.0977
▁유혹	-11.0995
▁외국영화	-11.0995
▁주먹	-11.0997
보이는데	-11.0999
▁고수	-11.1
-_	-11.1001
해야한다	-11.1004
▁좋아한다	-11.1015
울음	-11.1018
쭉	-11.1018
왜이래	-11.1019
슬퍼	-11.1019
완벽	-11.102
▁되어서	-11.1024
▁손색	-11.1028
아이돌	-11.1029
▁강제	-11.1029
▁300	-11.103
다시봐도	-11.1034
▁메리	-11.1041
마른	-11.1045
별루	-11.1046
123	-11.1051
▁배려	-11.1061
싶어서	-11.1069
티비에서	-11.1076
ol	-11.108
▁끊어	-11.1085
▁표정연기	-11.1093
등등	-11.1098
묘사	-11.11
▁드러나	-11.1101
▁끝날때	-11.1102
▁떠들	-11.1102
▁봐줄	-11.1115
▁멋있어	-11.1116
하지않은	-11.112
집중	-11.1126
뜩	-11.1132
둡	-11.1133
쌩	-11.1133
펀	-11.1133
▁고맙습니다	-11.1133
▁드림웍스	-11.1133
▁똑바로	-11.1133
▁미야자키	-11.1133
▁송혜교	-11.1133
▁인종차별	-11.1133
▁홧팅	-11.1133
둬	-11.1133
룹	-11.1133
핏	-11.1133
▁자본주의	-11.1133
▁절제된	-11.1133
룸	-11.1133
욬	-11.1133
켈	-11.1133
▁어둡고	-11.1133
▁2013	-11.1133
개인적으론	-11.1133
나옵니다	-11.1133
▁태어난	-11.1133
▁오인혜	-11.1133
▁정신나간	-11.1133
▁사로잡	-11.1133
▁더럽고	-11.1133
▁감수성	-11.1134
▁best	-11.1134
▁끊임없	-11.1134
▁짐승	-11.1134
별반개도	-11.1135
▁돋보인다	-11.1135
▁7.5	-11.1135
▁눈요기	-11.1135
▁모티브	-11.1136
ᄂᄂ	-11.1136
▁가해자	-11.1137
▁휴먼	-11.1139
▁감옥	-11.1139
▁접근	-11.1141
라이브	-11.1143
▁지나친	-11.1143
▁존경합니다	-11.1144
▁출현	-11.1146
▁서극	-11.1146
▁절반	-11.1149
▁확실한	-11.1154
▁스토리라인	-11.1154
따윈	-11.1154
▁중간부터	-11.1155
▁총알	-11.1156
▁우왕	-11.1158
▁대실망	-11.116
▁일탈	-11.116
▁못생겼	-11.1161
▁남자라면	-11.1163
써서	-11.1163
▁예산	-11.1171
▁건강	-11.1174
일수도	-11.1174
all	-11.1177
▁울었던	-11.1178
▁경제	-11.118
▁초등학교때	-11.1181
▁슬프지만	-11.1182
역겹	-11.1183
▁있겠지	-11.1183
▁발레	-11.1184
▁없구나	-11.1184
▁나은듯	-11.1185
--;	-11.1188
과도한	-11.1194
▁글쎄요	-11.1195
▁아까워요	-11.1203
▁철학적인	-11.1203
▁예쁘게	-11.1204
▁전락	-11.1206
▁잃어	-11.1209
▁부디	-11.122
▁예술성	-11.1221
▁차마	-11.1222
대단히	-11.1224
느님	-11.1228
▁마크	-11.1234
▁감상하	-11.1248
▁wh	-11.1266
▁향해	-11.1274
지마시길	-11.1279
▁존재한다	-11.129
▁솔직한	-11.1296
▁존재감	-11.1298
▁어린이들	-11.1305
불륜	-11.1308
챙겨	-11.131
때메	-11.1311
짓거리	-11.1323
▁마르	-11.1326
▁몰입되	-11.1338
ll	-11.134
▁느껴져	-11.1343
▁가졌	-11.1364
달까	-11.1368
▁압도	-11.1374
홍보	-11.1382
▁환상적이	-11.1386
것일까	-11.1387
흥미를	-11.1388
▁끌려	-11.1394
즌	-11.1395
▁터져	-11.1396
영화관에서	-11.1403
어이없네	-11.1403
챙	-11.1406
딜	-11.1406
▁얘들	-11.1409
첩	-11.1409
펑	-11.141
mbc	-11.1411
↓	-11.1411
▁뮤직비디오	-11.1411
▁팀버튼	-11.1411
▁파워레인저	-11.1411
▁클린트	-11.1411
▁뚝뚝	-11.1411
▁뜨거운	-11.1411
▁송지효	-11.1411
▁팍팍	-11.1411
▁나쁘진	-11.1411
▁두려움	-11.1411
▁한쿡영화	-11.1411
떄문에	-11.1411
▁뉴욕	-11.1411
▁비정상	-11.1411
▁이연희	-11.1411
▁흐뭇	-11.1411
▁힘내세요	-11.1412
▁무너지	-11.1412
앵글	-11.1413
▁짧게	-11.1414
▁즐겁고	-11.1414
배속으로	-11.1415
▁놀랬	-11.1415
▁초능력	-11.1416
▁비싼	-11.1416
▁비롯	-11.1416
약간	-11.1423
▁사라졌	-11.1424
이건뭐	-11.1426
▁넘어선	-11.1428
부턴	-11.1432
▁중학교때	-11.1445
▁사실적으로	-11.1447
줬으면	-11.1448
▁현실적으로	-11.1449
▁그지없	-11.145
▁잼없음	-11.1456
▁받아들이	-11.146
▁첨이네	-11.1461
▁최고였습니다	-11.1461
▁개독	-11.1462
▁훌륭함	-11.1466
▁미국판	-11.1471
▁담아내	-11.1477
▁되었는데	-11.1484
▁인간적인	-11.1493
ever	-11.1494
▁그지같	-11.15
▁사랑스럽	-11.1501
▁다시보고싶은	-11.1502
알바들	-11.1502
▁멀리	-11.1511
▁일생	-11.1516
왔던	-11.1528
▁엉성함	-11.1529
라기보다	-11.1532
est	-11.1536
▁좋았어	-11.1539
하고픈	-11.1542
알았	-11.1544
죽는줄	-11.1553
▁잠자	-11.1555
녀석들	-11.1555
▁불편함	-11.1569
러브	-11.1573
▁허접하다	-11.1579
핵	-11.1594
톰	-11.1596
흐름	-11.1598
낙	-11.1598
카메라	-11.1599
씹	-11.1602
진정한	-11.1603
이쁘고	-11.1604
시간낭비	-11.1604
볼걸	-11.1613
제작비	-11.1616
겐	-11.162
▁기억될	-11.1622
좋았어요	-11.1623
먼저	-11.1623
조각	-11.1624
봣음	-11.1628
▁죽을뻔	-11.1635
훌륭한	-11.1639
▁표현했다	-11.1643
관련	-11.1644
▁감동받았	-11.1649
▁환자	-11.165
남녀	-11.1653
배우님	-11.166
쯧	-11.1696
▁The	-11.1696
▁고스란히	-11.1696
▁서프라이즈	-11.1696
▁인터뷰	-11.1696
▁임권택	-11.1696
▁찝찝한	-11.1696
▁클리셰	-11.1696
꺄	-11.1696
넼	-11.1696
▁엉덩이	-11.1696
▁원주율	-11.1696
▁말았어야	-11.1696
▁양동근	-11.1696
▁어우러진	-11.1696
▁주상욱	-11.1696
꿨	-11.1696
▁김강우	-11.1696
▁조승우	-11.1696
▁구역질	-11.1697
▁일베충	-11.1697
▁암걸리	-11.1697
▁신민아	-11.1697
▁활용	-11.1697
▁이범수	-11.1698
▁웅장	-11.1698
▁흥미롭고	-11.1698
▁잃어버린	-11.1698
▁알게해준	-11.1701
▁유지태	-11.1702
▁튀어	-11.1703
up	-11.1703
▁움직이는	-11.1704
▁친절	-11.1705
▁그럼에도	-11.1705
▁은퇴	-11.1705
마인드	-11.1706
▁지들끼리	-11.1708
▁고인의	-11.1709
점대라니	-11.171
봣습니다	-11.171
▁어이없어서	-11.171
▁잘생기고	-11.171
▁추락	-11.1712
▁볼만해요	-11.1715
▁간절	-11.1716
▁선정적	-11.1716
▁불법	-11.1716
▁성숙	-11.1716
▁타락	-11.1718
▁여왕	-11.1718
▁신념	-11.1724
▁좋아한다면	-11.1726
그래요	-11.1726
▁없었으면	-11.173
▁뻔히	-11.1733
▁광팬	-11.1735
▁98	-11.1737
▁허무하게	-11.1746
▁관객에게	-11.1748
▁먹먹하다	-11.1752
▁좋아해요	-11.1756
▁어린이용	-11.1759
▁깎아	-11.1759
▁애국	-11.176
같았음	-11.1768
▁전투씬	-11.1782
인간들	-11.1785
▁않았으면	-11.1796
빠지고	-11.18
요소를	-11.1829
▁so	-11.1829
번씩	-11.1837
재미잇	-11.1842
영환줄	-11.185
▁외치	-11.1853
고싶지	-11.1854
▁빨아	-11.1854
가능한	-11.1856
▁던지는	-11.1867
▁수준이하	-11.1877
▁누워	-11.188
하곤	-11.1889
▁의식	-11.1901
아줌마	-11.1902
느와르	-11.1902
왜이리	-11.1907
이쁘다	-11.191
▁조금씩	-11.1913
그자체	-11.1922
▁제작사	-11.1926
예능	-11.1926
▁되돌아	-11.1927
존재	-11.1928
▁단편영화	-11.1945
▁찾아볼수	-11.1968
어울리는	-11.1979
▁리메이크작	-11.1986
▁서스펜스	-11.1991
▁웹툰	-11.1991
▁펭귄	-11.1991
흰	-11.1991
▁ebs	-11.1991
▁베트남	-11.1991
▁조용히	-11.1991
▁큐브	-11.1991
▁강지환	-11.1991
▁안타까울	-11.1991
▁특징	-11.1991
▁임수정	-11.1991
▁불후의	-11.1991
씨리즈	-11.1991
▁일요일	-11.1991
▁러셀	-11.1991
▁닥터	-11.1991
▁어울려	-11.1991
▁퍼즐	-11.1991
▁이해안가	-11.1992
귀요미	-11.1992
▁푸른	-11.1993
▁일깨워주는	-11.1993
▁증말	-11.1994
▁가끔씩	-11.1994
▁빠져드는	-11.1997
▁언론	-11.1997
싶을때	-11.1998
▁고찰	-11.1998
▁자세히	-11.1999
▁알았더니	-11.1999
▁닮아	-11.2002
▁산만한	-11.2004
▁지루했어요	-11.2004
▁않았을까	-11.2005
▁끼워	-11.2007
▁놀라울	-11.2008
▁중반부	-11.2009
▁여튼	-11.2009
▁99	-11.201
▁물씬	-11.201
▁지났지만	-11.2012
▁공감가는	-11.2013
▁우익	-11.2013
거든요	-11.2015
▁깔끔하고	-11.2015
▁돌려줘	-11.2016
▁초딩들	-11.2017
알수있	-11.2018
▁때문이다	-11.202
교육	-11.2022
▁상영시간	-11.2023
▁엉성하다	-11.2024
▁초중반	-11.2028
▁최고였어요	-11.2028
▁말해주는	-11.203
▁생각나네요	-11.2034
▁도통	-11.2035
멘트	-11.2035
▁됐는데	-11.2037
▁비극적	-11.2039
▁나누	-11.204
▁주목	-11.2042
▁압도적	-11.2043
▁아동용	-11.2043
▁허술하고	-11.2045
▁뻔해서	-11.2045
▁존내	-11.2055
하지마세요	-11.2058
▁잊혀	-11.206
▁볼거없	-11.2069
▁드러내	-11.2069
야되는데	-11.207
▁선동영화	-11.2074
쳐먹	-11.2076
▁중반까지	-11.2111
레이드	-11.2116
엿음	-11.2119
겠군	-11.2128
관계를	-11.2141
▁진부함	-11.2142
▁재미있었던	-11.2149
시켜주	-11.2172
다음으로	-11.2198
▁괜찮네	-11.2211
깎	-11.2213
OST	-11.2214
감사합니다	-11.2215
훨씬	-11.2216
꽝	-11.2218
▁어처구니없	-11.2218
극장판	-11.2225
▁잃지	-11.2248
시리즈중	-11.2249
▁상관	-11.2263
▁정치적	-11.2269
▁만들어준	-11.2272
▁오글거려	-11.2273
픔	-11.2276
거예요	-11.2288
콧	-11.229
쿡	-11.2293
맙	-11.2293
뺨	-11.2294
췄	-11.2294
톨	-11.2294
▁ocn	-11.2294
▁기대됩니다	-11.2294
▁보냅니다	-11.2294
▁오리지널	-11.2294
▁용두사미	-11.2294
▁컨저링	-11.2294
人	-11.2294
긔	-11.2294
뒀	-11.2294
뱉	-11.2294
쉰	-11.2294
쌈	-11.2294
엎	-11.2294
재밌게봤습니다	-11.2294
▁재발견	-11.2294
▁내러티브	-11.2294
▁어울린다	-11.2294
▁삽입	-11.2294
▁멘붕	-11.2294
▁하이킥	-11.2294
▁ᄅᄋ	-11.2294
▁잠수함	-11.2294
▁저절로	-11.2294
^.^	-11.2294
▁흡사	-11.2294
▁록키	-11.2295
▁묘미	-11.2295
▁간첩	-11.2295
▁위대함	-11.2295
▁잔인하기만	-11.2296
▁온몸	-11.2296
▁새롭게	-11.2296
▁스티브	-11.2297
▁잃고	-11.23
▁말이필요없는	-11.2301
▁떠오르	-11.2301
ent	-11.2301
▁대표작	-11.2301
▁증거	-11.2301
▁역쉬	-11.2302
▁구리다	-11.2305
▁절실	-11.2307
▁바랬	-11.2308
동아리	-11.2309
▁재료	-11.231
▁해도해도	-11.2312
▁가르쳐	-11.2313
▁만들어주세요	-11.2313
▁언급	-11.2314
▁딱딱	-11.2315
▁내보내	-11.2317
▁전세계	-11.2319
▁원표	-11.232
▁헐크	-11.2321
▁모르겠는데	-11.233
안됐	-11.2339
▁심심하	-11.2341
▁아쉽긴	-11.2342
▁더빙판	-11.2342
▁이나영	-11.2343
▁실소	-11.2346
95	-11.2352
▁호소	-11.2355
▁고발	-11.2355
▁예상치	-11.2356
하지않는	-11.2363
▁제목부터	-11.2364
채널에서	-11.2372
▁필수	-11.238
짱짱짱	-11.2383
끼들	-11.2408
▁타이틀	-11.2418
▁모른	-11.242
폭탄	-11.2422
▁서사	-11.2424
괴물	-11.2436
▁비현실적인	-11.244
▁읽어보	-11.2449
됐어요	-11.245
빼	-11.246
▁가식	-11.2464
같으니	-11.2475
▁악평	-11.2478
티브	-11.2486
▁가려	-11.2497
방울	-11.2521
▁떨어진	-11.2529
퀄리티	-11.2531
되었던	-11.2535
넌	-11.2536
쳤던	-11.2537
10000	-11.2537
▁성우들	-11.2541
슈퍼	-11.2542
탈출	-11.2545
괜히	-11.2545
낮아서	-11.2548
ul	-11.2555
방법	-11.2556
녀석	-11.2561
▁겉멋	-11.2568
천국	-11.257
▁소름돋았	-11.2581
젼	-11.2587
움직이	-11.2599
▁공짜	-11.2599
률	-11.2606
q	-11.2606
쏠	-11.2606
꾹	-11.2606
샷	-11.2606
Z	-11.2606
▁매트릭스	-11.2606
▁슬래셔	-11.2606
▁에일리언	-11.2606
▁인터스텔라	-11.2606
▁채플린	-11.2606
▁혹성탈출	-11.2606
댐	-11.2606
댕	-11.2606
륙	-11.2606
륵	-11.2606
웩	-11.2606
핳	-11.2606
헷	-11.2606
흙	-11.2606
▁이스트우드	-11.2606
엣	-11.2606
▁오타쿠	-11.2606
▁박신양	-11.2606
▁불면증	-11.2606
▁기분좋게	-11.2606
▁두근두근	-11.2606
▁관람불가	-11.2606
▁미치도록	-11.2606
▁엉엉	-11.2606
▁섭외	-11.2606
▁케이트	-11.2606
▁빅뱅	-11.2606
▁화려함	-11.2607
▁나타내	-11.2607
▁그들만의	-11.2607
▁잘만들어진	-11.2607
▁묘하게	-11.2608
씁니다	-11.2608
▁유아인	-11.2608
즐거워	-11.2609
▁별한개도	-11.2609
▁패턴	-11.2609
▁스콧	-11.2609
▁경쾌	-11.2609
▁말아라	-11.2609
▁비현실적	-11.261
▁닮은	-11.261
▁묻어나는	-11.261
▁씁쓸한	-11.2611
▁내인생최고의	-11.2611
▁재평가	-11.2612
▁맞춘	-11.2614
▁적절히	-11.2615
▁당최	-11.2616
▁케이지	-11.2616
▁아까웠던	-11.2618
▁느낌이랄까	-11.2619
▁악플	-11.2622
▁웃어야	-11.2623
▁모든것을	-11.2624
▁공존	-11.2624
▁동료	-11.2625
▁신나게	-11.2626
▁속아서	-11.2626
▁이번엔	-11.2629
▁고향	-11.2629
▁지금껏	-11.263
▁심심해서	-11.263
▁창조	-11.2631
▁중요하다	-11.2631
붕괴	-11.2631
▁장나라	-11.2632
▁허술하다	-11.2632
봣던	-11.2635
같았는데	-11.2635
▁많았던	-11.2639
▁무얼	-11.2639
해지네요	-11.2641
▁알수없는	-11.2641
▁아니겠지	-11.2641
▁예매	-11.2641
▁노예	-11.2643
▁일베	-11.2646
▁최저	-11.2647
▁종영	-11.2649
▁몽환적인	-11.2651
▁예술적	-11.2652
▁만들겠다	-11.2652
올림	-11.2653
▁뻔하지만	-11.2657
▁불편하다	-11.2658
▁졸면서	-11.2658
▁멋있어요	-11.2659
▁마초	-11.266
▁마녀	-11.2664
파티	-11.267
▁죽을때	-11.2672
뻐	-11.2681
해주길래	-11.2684
▁작위적인	-11.2685
황당	-11.2695
빼놓	-11.2745
▁합쳐	-11.2749
ge	-11.2773
낚였	-11.2785
ᅳᅮ	-11.2791
본것중	-11.2824
버렸음	-11.2829
낳	-11.2864
쪼	-11.2869
슬픈	-11.2877
교훈	-11.2881
빼면	-11.2883
▁바라보	-11.2885
ᅲᅲᅲᅲᅲᅲᅲᅲ	-11.2888
결론	-11.2894
중요한	-11.2903
섹스	-11.2903
씁	-11.2926
캡	-11.2928
ᅦ	-11.2929
쿄	-11.2929
팡	-11.2929
#	-11.2929
▁KBS	-11.2929
▁가볍고	-11.2929
▁스칼렛	-11.2929
▁쌩뚱맞	-11.2929
▁어설픔	-11.2929
▁역사왜곡	-11.2929
▁콘서트	-11.2929
▁크리스토퍼	-11.2929
댈	-11.2929
됌	-11.2929
샀	-11.2929
샹	-11.2929
숫	-11.2929
쌀	-11.2929
엌	-11.2929
펄	-11.2929
▁쏠쏠	-11.2929
▁맙시다	-11.2929
묵직한	-11.2929
▁탕웨이	-11.2929
▁나발이고	-11.2929
▁못생긴	-11.2929
▁스텝업	-11.2929
바이러스	-11.2929
▁사다코	-11.2929
▁오그라든다	-11.2929
▁집어넣	-11.2929
ᅩᅩ	-11.293
▁훈남	-11.293
▁고질라	-11.293
▁담아낸	-11.293
▁둘째	-11.2931
을위해	-11.2931
▁안타까워	-11.2931
▁저녁	-11.2932
▁용가리	-11.2932
▁무게감	-11.2933
▁이승기	-11.2933
▁웬만한	-11.2934
▁과잉	-11.2934
▁결합	-11.2934
▁이름값	-11.2934
▁지루하지않고	-11.2935
▁No	-11.2935
▁감동적이었습니다	-11.2935
▁응원합니다	-11.2938
▁환불	-11.2938
▁내겐	-11.2942
▁깔끔하게	-11.2942
▁스릴있고	-11.2943
▁위하여	-11.2943
좋아할만한	-11.2945
▁팬이라면	-11.2945
데이트	-11.2945
▁시간아까움	-11.2947
▁치열	-11.2949
▁느린	-11.2949
▁따뜻하게	-11.295
▁차원이	-11.295
▁씨발	-11.2952
▁멋있었다	-11.2953
▁봤었던	-11.2955
▁실화라니	-11.2955
▁2001	-11.2957
헤헤	-11.2958
▁느꼈던	-11.2959
▁젊은이들	-11.2964
▁울었네요	-11.2968
▁볼만했음	-11.2968
라이트	-11.2974
▁재회	-11.2979
▁봐왔	-11.2983
재밋게봣	-11.2986
▁고르	-11.2991
▁오락성	-11.2991
▁좀비물	-11.2994
▁첫장면	-11.2995
해줬으면	-11.3016
▁같기도	-11.3024
▁고래	-11.303
▁서우	-11.3034
객관적으로	-11.3077
쩔어	-11.3084
▁집중력	-11.3095
▁밑에분	-11.3159
▁보여주려	-11.3173
로인해	-11.3178
몇번이고	-11.3191
▁평론	-11.3198
▁들어왔	-11.3205
곰	-11.3214
녹	-11.3214
캬	-11.3214
끊	-11.3214
같습니다	-11.3218
킴	-11.3228
엉망	-11.3247
▁맞지않	-11.3253
줍	-11.326
▁휴머니즘	-11.3262
됴	-11.3262
샬	-11.3262
▁리암니슨	-11.3262
▁뭔내용인지	-11.3262
▁재밌게봤음	-11.3262
꽂	-11.3262
냅	-11.3262
칩	-11.3262
횽	-11.3262
▁줄리엣	-11.3262
▁신현준	-11.3262
▁양조위	-11.3262
안남기는데	-11.3262
▁강혜정	-11.3262
▁어떨까	-11.3262
▁흘렀	-11.3262
▁강호동	-11.3262
▁충무로	-11.3262
▁어려울	-11.3262
▁몬스터	-11.3262
스캔들	-11.3262
위원회	-11.3262
윤계상	-11.3262
▁정재영	-11.3263
김남길	-11.3263
▁어쩌라고	-11.3263
▁레이싱	-11.3264
▁침묵	-11.3264
▁어쩌라는	-11.3264
▁0.5	-11.3264
▁거대한	-11.3264
▁어려웠	-11.3264
▁촬영기법	-11.3264
변호사	-11.3264
▁팔아먹	-11.3264
▁자칫	-11.3264
▁에로틱	-11.3265
할수밖에	-11.3265
▁꺼버렸다	-11.3266
▁촌스러운	-11.3266
▁갖추	-11.3267
@@	-11.3267
▁때우기	-11.3268
▁프레디	-11.3269
점드림	-11.3269
▁졸려서	-11.3273
▁와이어	-11.3273
▁오싹	-11.3273
▁정도껏	-11.3276
▁느꼈습니다	-11.3276
▁말할것도	-11.3276
▁처참	-11.3278
▁아름다웠던	-11.328
▁호평	-11.328
▁질투	-11.328
▁다를게	-11.3281
▁재미있던데	-11.3282
버젼	-11.3283
▁남주인공	-11.3287
▁별다른	-11.329
▁알앗	-11.3292
▁도덕	-11.3293
종류	-11.3297
▁예수님	-11.3302
▁아니었음	-11.3317
▁앞부분	-11.3318
과정을	-11.3329
거아닌가	-11.3337
ig	-11.3351
▁과장되	-11.3358
▁어수선하	-11.3374
삶은	-11.339
▁탄탄하	-11.3412
▁풀었	-11.3418
▁교감	-11.343
하우스	-11.3487
ill	-11.3495
닼ᄏᄏᄏ	-11.3516
▁굉장	-11.3536
▁사실적이	-11.3547
재미가없	-11.3555
취향은	-11.3569
J	-11.357
빅	-11.3571
매니아	-11.3571
웬	-11.3572
저렇게	-11.3572
오히려	-11.3573
예고편	-11.3574
흥행	-11.3577
짜증난다	-11.3579
gt	-11.3606
훔	-11.3606
쵝	-11.3607
죤	-11.3607
훼	-11.3607
▁후덜덜	-11.3607
▁kbs	-11.3607
▁리즈시절	-11.3607
▁브래드피트	-11.3607
▁스탤론	-11.3607
▁인상깊은	-11.3607
닦	-11.3607
듀	-11.3607
안봤으면	-11.3607
촉	-11.3607
햄	-11.3607
▁깨알같은	-11.3607
▁서부극	-11.3607
▁에이리언	-11.3607
▁왠만해선	-11.3607
탔	-11.3607
▁김하늘	-11.3607
▁무슨내용인지	-11.3607
▁홍진호	-11.3607
▁올레티비	-11.3607
▁치밀한	-11.3607
-0-	-11.3607
▁로드무비	-11.3607
▁불필요한	-11.3607
▁알맹이	-11.3607
▁이동욱	-11.3607
▁나중엔	-11.3607
쥐어짜	-11.3607
▁뛰쳐	-11.3607
▁and	-11.3607
▁콤비	-11.3607
▁전문성우	-11.3607
▁한정된	-11.3607
▁못미치는	-11.3607
▁박해일	-11.3607
▁빵터짐	-11.3608
▁흔히	-11.3608
▁이성재	-11.3608
▁예뻐요	-11.3608
bbbb	-11.3608
▁슈렉	-11.3609
▁유아용	-11.3609
▁루이스	-11.3609
▁안쓰러	-11.361
▁가득찬	-11.361
▁황홀	-11.3611
▁이준기	-11.3611
▁실컷	-11.3611
▁목숨을	-11.3612
▁새롭고	-11.3612
▁발휘	-11.3612
▁악몽	-11.3613
▁얼른	-11.3613
▁찰리	-11.3613
▁적나라하	-11.3614
▁신파극	-11.3614
▁저평가된	-11.3615
▁선율	-11.3615
▁첨본다	-11.3616
▁억지스러움	-11.3616
▁놓친	-11.3617
▁언제쯤	-11.3618
▁뇌리에	-11.3618
▁습작	-11.3619
▁미안하지만	-11.3622
▁찾았다	-11.3622
▁끝내주는	-11.3626
▁몰입하면서	-11.3626
▁알고보니	-11.363
▁고백	-11.3631
▁얻을	-11.3631
▁표본	-11.3633
▁욕나오는	-11.3643
▁조용하	-11.3682
▁떠난	-11.3684
그치만	-11.3689
때문인지	-11.3696
▁어린애들	-11.3701
파괴	-11.3734
▁잠든	-11.3743
▁어이가없	-11.377
싶을정도	-11.382
▁기분좋은	-11.3823
팬으로서	-11.3832
베르	-11.3835
▁볼게없	-11.3847
어쩔수없	-11.385
어수선	-11.385
새키	-11.3872
찾았	-11.3873
▁주고싶은	-11.3876
찍었	-11.3877
볼수없	-11.3877
의미로	-11.3906
▁느려	-11.3912
펑펑	-11.3939
good	-11.3943
버렸어	-11.3943
청춘	-11.3947
▁명배우들	-11.396
뀌	-11.3961
뭇	-11.3963
도그렇고	-11.3964
○	-11.3964
naver	-11.3964
뻘	-11.3964
멕	-11.3964
ᄑ	-11.3964
▁아메리칸	-11.3964
▁원맨쇼	-11.3964
▁웨슬리	-11.3964
▁찝찝함	-11.3964
뺀	-11.3964
솟	-11.3964
씌	-11.3964
쬐	-11.3964
프로젝트	-11.3964
▁떠올리게	-11.3964
▁최곱니다	-11.3964
젓	-11.3964
쫙	-11.3964
zzz	-11.3964
▁무의미한	-11.3964
▁크루즈	-11.3964
▁한예슬	-11.3964
욜	-11.3964
▁문근영	-11.3964
▁추악한	-11.3964
▁잘생김	-11.3964
▁단체로	-11.3964
▁뒤집어	-11.3964
▁깜찍	-11.3964
▁쌍욕	-11.3964
▁고현정	-11.3964
봅시다	-11.3964
▁페이크다큐	-11.3964
▁암울한	-11.3964
▁연관성	-11.3964
▁옹박	-11.3964
▁미치겠다	-11.3964
▁빨리감기	-11.3965
▁유오성	-11.3965
허니잼	-11.3965
▁졸업작품	-11.3966
▁조인성	-11.3966
▁매튜	-11.3966
뿐더러	-11.3966
▁일어난	-11.3966
▁꺼버림	-11.3966
▁완소	-11.3966
▁소리지르	-11.3967
▁my	-11.3968
▁하얀	-11.3969
▁깍아	-11.3969
▁육체	-11.397
▁끝내준다	-11.397
▁화가난다	-11.397
▁재치있	-11.3972
▁느껴짐	-11.3973
▁2008	-11.3973
▁일대기	-11.3974
▁투표	-11.3974
▁괜찮던데	-11.3975
▁미흡	-11.3976
▁껏다	-11.3977
▁적응	-11.3977
▁지겨운	-11.3978
▁녹화	-11.3978
별한개	-11.3981
▁대략	-11.3983
▁바람피	-11.3983
▁교차	-11.3984
▁어느새	-11.3984
▁추잡	-11.3984
▁대가리	-11.3986
▁졸업	-11.3989
▁창작	-11.399
▁괴작	-11.399
시킴	-11.4
▁결과물	-11.4001
▁당신들	-11.4009
을위한	-11.4017
▁밥먹	-11.4043
▁즐겨보	-11.4062
▁탁월	-11.4066
지말아야	-11.4077
기억에남는	-11.4129
▁서민	-11.4159
▁객관적	-11.4166
▁드러난	-11.4168
미래를	-11.4186
▁특별하	-11.4211
같았다	-11.4244
▁보게되었	-11.4261
있으면서	-11.4263
▁어색하지	-11.4289
444	-11.4327
뮤지컬	-11.4327
프랑스	-11.4328
슬픔	-11.4329
홍콩	-11.433
1,2	-11.433
튜	-11.4332
몸매	-11.4334
펐	-11.4334
맴	-11.4334
괘	-11.4334
▁떠오른다	-11.4334
▁로보캅	-11.4334
▁어벤져스	-11.4334
궈	-11.4334
돕	-11.4334
샌	-11.4334
쌔	-11.4334
쑤	-11.4334
욧	-11.4334
텀	-11.4334
툰	-11.4334
▁까메오	-11.4334
▁멜깁슨	-11.4334
▁보면볼수록	-11.4334
▁엑스트라	-11.4334
▁유치뽕짝	-11.4334
귓	-11.4334
뇨	-11.4334
힛	-11.4334
▁듣보잡	-11.4334
▁브래드	-11.4334
▁스타일리쉬	-11.4334
▁페이크	-11.4334
덥	-11.4334
▁노무현	-11.4334
▁덴젤	-11.4334
▁무책임	-11.4334
▁지하철	-11.4334
▁눈뜨고	-11.4334
▁장쯔이	-11.4334
▁해리슨	-11.4334
지맙시다	-11.4335
▁애절한	-11.4335
▁중딩때	-11.4335
▁금요일	-11.4335
▁훈련	-11.4335
▁피라냐	-11.4335
▁최선을	-11.4335
테잎	-11.4335
▁옹호	-11.4335
오디션	-11.4335
▁차가운	-11.4335
▁믿겨지지	-11.4335
▁에너지	-11.4335
▁가면갈수록	-11.4335
▁크리스틴	-11.4335
▁여진구	-11.4335
▁측면	-11.4336
▁효민	-11.4336
▁싱겁	-11.4336
▁어려워	-11.4336
▁나눠	-11.4336
▁나타난	-11.4336
▁시청율	-11.4336
▁이뻐요	-11.4336
▁한지민	-11.4336
연기너무잘	-11.4338
▁자연스럽고	-11.4338
▁즐겁다	-11.4338
▁갑갑	-11.4339
▁흥해라	-11.4339
▁영화관가서	-11.434
보고난후	-11.4341
▁빠순이들	-11.4342
뻔한스토리	-11.4343
▁개념없	-11.4343
▁독백	-11.4344
▁급전개	-11.4344
▁회복	-11.4344
▁외로운	-11.4344
▁출연료	-11.4347
▁행복해지는	-11.435
▁문학	-11.435
▁엔딩곡	-11.435
▁명곡	-11.4352
흐흐	-11.4366
ᄋᄋᄋ	-11.4367
▁추천해주고	-11.4375
게아니라	-11.4389
▁이해못하	-11.4389
기다리	-11.4391
cgv	-11.4396
▁경쟁	-11.4404
메시지를	-11.4446
▁따듯하	-11.4455
보게됨	-11.4459
기위한	-11.4502
편견을	-11.4528
▁터졌	-11.46
▁시간아까운	-11.4604
▁나쁜놈	-11.4617
▁놀래키	-11.466
▁몽환적	-11.4665
우리들의	-11.4667
▁아역배우	-11.4667
▁짧지	-11.4687
▁실망스러웠	-11.4699
조금이라도	-11.4702
되어가는	-11.4707
안타깝	-11.4709
겻	-11.4713
채널	-11.4715
렘	-11.4718
·	-11.4719
▁OCN	-11.4719
▁아날로그	-11.4719
▁어땠을까	-11.4719
▁엄태웅	-11.4719
▁톰행크스	-11.4719
▁핸드폰	-11.4719
갸	-11.4719
껍	-11.4719
썽	-11.4719
아담샌들러	-11.4719
좁	-11.4719
짖	-11.4719
쨩	-11.4719
쪄	-11.4719
▁love	-11.4719
▁거슬린다	-11.4719
▁옴니버스	-11.4719
롬	-11.4719
▁주옥같은	-11.4719
▁뒤통수	-11.4719
▁뚜렷	-11.4719
▁로렌스	-11.4719
▁무삭제	-11.4719
▁유치원생	-11.4719
▁일으키	-11.4719
▁괜춘	-11.4719
▁다녀온	-11.4719
▁보기드문	-11.4719
▁빡쳐서	-11.4719
▁재해석	-11.4719
▁서서히	-11.4719
▁아쉬웠다	-11.4719
▁마피아	-11.4719
▁신들린	-11.4719
▁활약	-11.4719
▁토마스	-11.4719
▁영구와	-11.4719
▁낯선	-11.4719
▁좌파	-11.4719
▁도입부	-11.4719
▁디자인	-11.4719
▁압박	-11.472
▁토이스토리	-11.472
▁가만히	-11.472
▁설렘	-11.472
클래스	-11.472
기대안했는데	-11.4721
▁무섭지도않고	-11.4721
좌빨	-11.4721
▁조선족	-11.4722
▁짐작	-11.4722
▁탐욕	-11.4722
▁낮춰	-11.4722
▁알겠으나	-11.4722
▁조용한	-11.4723
▁똥폼	-11.4724
짠	-11.4724
▁의심스럽다	-11.4725
생겻	-11.4725
▁밝은	-11.4725
▁반성해라	-11.4726
▁불꽃	-11.4726
▁개봉했을때	-11.4726
[	-11.4727
▁먹먹해지는	-11.4727
꽤	-11.4728
▁할말이없다	-11.473
▁리암	-11.473
▁실존	-11.4731
통쾌	-11.4732
▁현빈	-11.4732
▁벌어지는	-11.4734
▁질질끄는	-11.4737
▁일방적	-11.4744
▁풀어가는	-11.4748
보고나면	-11.4754
▁심오하	-11.4768
심리를	-11.4786
본질을	-11.4852
▁갑작스	-11.4861
▁얻었	-11.4863
▁따른	-11.4873
절대보지마	-11.4892
생각해보면	-11.4911
되었으면	-11.4926
▁당황스럽	-11.4933
▁울뻔	-11.4984
잊혀지	-11.499
끝났으면	-11.5003
생기고	-11.5039
▁모아놓	-11.5043
뭐하러	-11.5046
어지네요	-11.5048
훌륭	-11.5083
▁어딜	-11.5106
▁별반개	-11.5117
빠순이	-11.5118
훌	-11.5119
▁브루스윌리스	-11.5119
톡	-11.5119
ᅭ	-11.5119
’	-11.5119
▁맥라이언	-11.5119
▁손꼽히는	-11.5119
▁쌍팔년도	-11.5119
▁어메이징	-11.5119
▁어중간한	-11.5119
▁정신건강에	-11.5119
▁폴워커	-11.5119
꿋	-11.5119
데미무어	-11.5119
씽	-11.5119
얹	-11.5119
캅	-11.5119
판타스틱	-11.5119
밭	-11.5119
쌤	-11.5119
퍽	-11.5119
훅	-11.5119
ᆞ	-11.5119
▁고마워요	-11.5119
▁피터팬	-11.5119
▁고맙다	-11.5119
▁하루종일	-11.5119
▁후유증	-11.5119
▁조재현	-11.5119
▁어려움	-11.5119
▁민주주의	-11.5119
▁장만옥	-11.5119
▁캐서린	-11.5119
▁어떨지	-11.5119
▁가깝다	-11.5119
▁고소영	-11.5119
▁버무려	-11.5119
▁기괴한	-11.5119
▁사춘기	-11.5119
▁정유미	-11.5119
▁이종석	-11.5119
▁어디선가	-11.5119
▁어리석	-11.5119
▁풋풋하고	-11.512
▁슈스케	-11.512
▁잔잔히	-11.512
▁테론	-11.512
랍시고	-11.512
▁다가온다	-11.5121
▁씹노잼	-11.5121
▁for	-11.5121
*^^*	-11.5121
▁김수로	-11.5121
▁쾌감	-11.5121
▁거침없	-11.5121
▁김선아	-11.5121
▁멋집니다	-11.5122
▁잊혀지지않는	-11.5122
▁이민정	-11.5122
과함께	-11.5124
▁다르겠지만	-11.5124
▁MC	-11.5125
▁가족끼리	-11.5126
▁밝고	-11.5126
▁심심할때	-11.5126
▁애썼	-11.5126
테이프	-11.5129
▁감동적이었어요	-11.513
▁치명적	-11.5131
잡아먹	-11.5132
▁아이리스	-11.5132
▁팬이라서	-11.5133
중간중간	-11.5144
짝퉁	-11.5145
▁린치	-11.515
아무것도	-11.5151
허허허	-11.5151
▁미치지	-11.5157
▁망쳐놨	-11.52
잘생겼다	-11.5213
▁댓글알바	-11.5255
▁잡았	-11.5256
흥미롭	-11.5257
었더라면	-11.5288
보기에도	-11.5301
▁억울하	-11.5302
되었지만	-11.5312
지마시고	-11.5352
리얼하게	-11.54
▁실망시키지	-11.5401
▁자랑스럽	-11.5407
▁오그라	-11.5422
곁	-11.5431
..-_-;;	-11.5437
하시는분들	-11.5442
보지마삼	-11.5497
▁못보겠네	-11.5516
are	-11.5527
쩡	-11.5535
삽	-11.5535
륭	-11.5536
\	-11.5536
윙	-11.5536
▁빈디젤	-11.5536
엥	-11.5536
▁로멘틱	-11.5536
▁로버츠	-11.5536
▁선입견	-11.5536
▁윌스미스	-11.5536
▁인피니트	-11.5536
▁중구난방	-11.5536
▁천녀유혼	-11.5536
▁초콜릿	-11.5536
▁카타르시스	-11.5536
갤	-11.5536
꼼	-11.5536
댔	-11.5536
반지의제왕	-11.5536
▁맥어보이	-11.5536
햐	-11.5536
▁공효진	-11.5536
▁여실히	-11.5536
▁최진실	-11.5536
▁훼손	-11.5536
▁유역비	-11.5536
▁긍정적	-11.5536
▁모니터	-11.5536
▁제레미	-11.5536
잘어울려	-11.5536
▁배드신	-11.5536
▁압축	-11.5536
밌	-11.5965
걱	-11.5969
뭥	-11.597
몹	-11.597
뛴	-11.597
뤽	-11.597
붓	-11.597
셰	-11.597
쵸	-11.597
핍	-11.597
횡	-11.597
깬	-11.597
늠	-11.597
뤘	-11.597
얕	-11.597
얀	-11.6419
늑	-11.6424
힙	-11.6425
힝	-11.6425
Q	-11.6425
‘	-11.6425
낰	-11.6425
낱	-11.6425
뎈	-11.6425
짬	-11.6425
깽	-11.6425
꺅	-11.6425
뜰	-11.6425
붐	-11.6425
썅	-11.6425
얌	-11.6425
윗	-11.6425
쟝	-11.6425
잭	-11.6508
헬	-11.651
낌	-11.6898
낄	-11.69
캔	-11.6901
|	-11.6901
ᅧ	-11.6901
겜	-11.6901
앳	-11.6901
팜	-11.6901
“	-11.6901
굼	-11.6901
됀	-11.6901
슌	-11.6901
웁	-11.6901
짭	-11.6901
휼	-11.6901
곸	-11.6901
및	-11.7007
떤	-11.7377
첼	-11.7401
ᅣ	-11.7401
뚤	-11.7401
싯	-11.7401
쑈	-11.7401
꾀	-11.7401
꿉	-11.7401
뱃	-11.7401
융	-11.7401
젬	-11.7401
텍	-11.7401
뵈	-11.7401
냉	-11.7528
맡	-11.7535
푹	-11.7535
펙	-11.7919
뷔	-11.7926
돠	-11.7927
빽	-11.7927
샴	-11.7927
댜	-11.7927
빔	-11.7927
섰	-11.7927
얔	-11.7927
”	-11.8483
→	-11.8483
乃	-11.8483
甲	-11.8483
떴	-11.8483
쁠	-11.8483
쉘	-11.8483
욯	-11.8483
읎	-11.8483
쟤	-11.8483
캣	-11.8483
쾅	-11.8483
퀘	-11.8483
땟	-11.8483
욘	-11.8483
짚	-11.8483
쿤	-11.8483
훨	-11.8678
칫	-11.9067
걔	-11.9071
♬	-11.9071
귄	-11.9071
뇬	-11.9071
댁	-11.9071
맬	-11.9071
뭍	-11.9071
뺐	-11.9071
숴	-11.9071
웡	-11.9071
웹	-11.9071
퉷	-11.9071
훤	-11.9071
갚	-11.9071
넉	-11.9071
킷	-11.9071
룻	-11.9071
곧	-11.9303
쩐	-11.9599
됏	-11.9696
꿰	-11.9696
젝	-11.9696
쨔	-11.9696
뤠	-11.9696
、	-11.9696
無	-11.9696
괄	-11.9696
뮬	-11.9696
죵	-11.9696
핰	-11.9696
좃	-11.9696
챔	-11.9696
헛	-11.9966
넥	-12.0363
킁	-12.0363
멧	-12.0363
쪙	-12.0363
풉	-12.0363
겅	-12.0363
겔	-12.0363
믓	-12.0363
뿅	-12.0363
뿍	-12.0363
쏜	-12.0363
첸	-12.0363
슥	-12.0363
벡	-12.0363
땜	-12.0975
켰	-12.1049
녁	-12.1071
끽	-12.1077
뷁	-12.1077
굽	-12.1077
껌	-12.1077
뺑	-12.1077
얍	-12.1077
찼	-12.1077
칵	-12.1077
넴	-12.1077
눅	-12.1077
륨	-12.1077
쒯	-12.1077
잌	-12.1077
잰	-12.1077
쳇	-12.1077
툴	-12.1077
퐁	-12.1077
홉	-12.1077
휙	-12.1077
흣	-12.1077
텨	-12.1077
썹	-12.1077
뒷	-12.1453
탭	-12.1843
챈	-12.1846
섀	-12.1846
렜	-12.1846
샵	-12.1846
꽈	-12.1846
뒹	-12.1846
쫑	-12.1846
』	-12.1846
굶	-12.1846
깼	-12.1846
넛	-12.1846
돔	-12.1846
슐	-12.1846
춥	-12.1846
꼐	-12.1846
넝	-12.1846
밸	-12.1846
볶	-12.1846
눕	-12.268
『	-12.268
퀼	-12.268
갯	-12.268
괸	-12.268
냔	-12.268
넨	-12.268
뎃	-12.268
쎈	-12.268
왁	-12.268
욥	-12.268
졷	-12.268
끙	-12.268
멱	-12.268
뿡	-12.268
캄	-12.268
콱	-12.268
팰	-12.268
헿	-12.268
뻗	-12.268
ᄡ	-12.3195
컥	-12.3586
갇	-12.3588
꼇	-12.3588
{	-12.3589
}	-12.3589
궤	-12.3589
쒸	-12.3589
컵	-12.3589
혓	-12.3589
곀	-12.3589
랖	-12.3589
벳	-12.3589
쑥	-12.3589
읭	-12.3589
줏	-12.3589
꺠	-12.3589
뒈	-12.3589
밓	-12.3589
봅	-12.4586
잎	-12.4587
눔	-12.4589
$	-12.4589
갘	-12.4589
ᄈ	-12.4589
떵	-12.4589
잦	-12.4589
ᆪ	-12.4589
死	-12.4589
깟	-12.4589
롹	-12.4589
쨰	-12.4589
챤	-12.4589
쿼	-12.4589
큭	-12.4589
툼	-12.4589
펭	-12.4589
딛	-12.4589
딥	-12.4589
앰	-12.4589
짰	-12.4589
쫘	-12.4589
닛	-12.4589
옛	-12.5299
쫓	-12.5307
뭣	-12.5307
앱	-12.57
뺄	-12.57
쏭	-12.57
팟	-12.57
⌒	-12.57
♪	-12.57
作	-12.57
놉	-12.57
뭄	-12.57
읊	-12.57
쳣	-12.57
컹	-12.57
女	-12.57
쮸	-12.57
촬	-12.6944
킵	-12.6947
냠	-12.695
랔	-12.695
쨍	-12.695
팥	-12.695
ン	-12.695
롸	-12.695
렙	-12.695
뮈	-12.695
숏	-12.695
슝	-12.695
웍	-12.695
웜	-12.695
챦	-12.695
촐	-12.695
퀵	-12.695
꿇	-12.695
뤼	-12.695
믈	-12.695
븅	-12.695
뽐	-12.695
쥰	-12.695
찟	-12.695
찹	-12.695
캉	-12.695
떙	-12.695
옇	-12.695
캘	-12.695
콰	-12.695
헥	-12.695
밈	-12.8379
×	-12.8379
퀀	-12.8379
굉	-13.0045
옳	-13.1652
눠	-13.2036
췌	-13.2043
햅	-13.2045
텝	-13.4494
슷	-13.4528
탤	-13.7879
햏	-14.2797
햌	-14.2798
츈	-14.2799
챘	-14.28
짘	-14.2801
죨	-14.2802
뛸	-14.2803
덟	-14.2804
훠	-14.2805
짊	-14.2806
왘	-14.2807
씸	-14.2808
썪	-14.2809
쌉	-14.281
숟	-14.2811
빴	-14.2812
벚	-14.2813
랗	-14.2814
냨	-14.2815
괭	-14.2816
흩	-14.2817
헵	-14.2818
故	-14.2819
쥑	-14.282
잴	-14.2821
윅	-14.2822
땔	-14.2823
닠	-14.2824
놧	-14.2825
뀜	-14.2826
껑	-14.2827
홥	-14.2828
헴	-14.2829
촛	-14.283
앍	-14.2831
뉜	-14.2832
훑	-14.2833
샛	-14.2834
덱	-14.2835
낍	-14.2836
괞	-14.2837
휠	-14.2838
헠	-14.2839
츤	-14.284
좔	-14.2841
꺾	-14.2842
횟	-14.2843
핥	-14.2844
폄	-14.2845
큽	-14.2846
옜	-14.2847
샐	-14.2848
쁩	-14.2849
뀔	-14.285
휩	-14.2851
큘	-14.2852
콥	-14.2853
촘	-14.2854
뺴	-14.2855
멎	-14.2856
핡	-14.2857
뵙	-14.2858
꺽	-14.2859
긁	-14.286
딪	-14.2861
릎	-14.2862
낡	-14.2863
펏	-14.2864
씻	-14.2865
녔	-14.2866
굵	-14.2867
셸	-14.2868
닳	-14.2869
켠	-14.287
쥔	-14.2871
왼	-14.2872
픕	-14.2873
딨	-14.2874
넋	-14.2875
빚	-14.2876
꽥	-14.2877
뀐	-14.2878
뭡	-14.2879
얽	-14.288
앓	-14.2881
쫒	-14.2882
쨋	-14.2883
텅	-14.2884
꽉	-14.2885
붉	-14.2886
땠	-14.2887
멤	-14.2888
둠	-14.2889
홧	-14.289
밟	-14.2891
틋	-14.2892
뿜	-14.2893
빕	-14.2894
컸	-14.2895
뻣	-14.2896
옮	-14.2897
핸	-14.2898
맑	-14.2899
찢	-14.29
엮	-14.2901
팠	-14.2902
쨌	-14.2903
쫄	-14.2904
틸	-14.2905
띄	-14.2906
겪	-14.2907
껐	-14.2908
왤	-14.2909
뻤	-14.291
쏟	-14.2911
닙	-14.2912
딧	-14.2913
듭	-14.2914
꿔	-14.2915
섞	-14.2916
획	-14.2917
겉	-14.2918
쁨	-14.2919
됩	-14.292
늦	-14.2921
볍	-14.2922
찝	-14.2923
묻	-14.2924
똑	-14.2925
랐	-14.2926
깊	-14.2927
떻	-14.2928
렸	-14.2929
렇	-14.293
봤	-14.2931
